{
  "version": "1.0",
  "truncation": null,
  "padding": null,
  "added_tokens": [
    {
      "id": 0,
      "content": "[UNK]",
      "single_word": false,
      "lstrip": false,
      "rstrip": false,
      "normalized": false,
      "special": true
    },
    {
      "id": 1,
      "content": "[PAD]",
      "single_word": false,
      "lstrip": false,
      "rstrip": false,
      "normalized": false,
      "special": true
    },
    {
      "id": 2,
      "content": "[SOS]",
      "single_word": false,
      "lstrip": false,
      "rstrip": false,
      "normalized": false,
      "special": true
    },
    {
      "id": 3,
      "content": "[EOS]",
      "single_word": false,
      "lstrip": false,
      "rstrip": false,
      "normalized": false,
      "special": true
    }
  ],
  "normalizer": null,
  "pre_tokenizer": {
    "type": "Whitespace"
  },
  "post_processor": null,
  "decoder": null,
  "model": {
    "type": "BPE",
    "dropout": null,
    "unk_token": "[UNK]",
    "continuing_subword_prefix": null,
    "end_of_word_suffix": null,
    "fuse_unk": false,
    "byte_fallback": false,
    "ignore_merges": false,
    "vocab": {
      "[UNK]": 0,
      "[PAD]": 1,
      "[SOS]": 2,
      "[EOS]": 3,
      "\u001b": 4,
      "!": 5,
      "\"": 6,
      "#": 7,
      "$": 8,
      "%": 9,
      "&": 10,
      "'": 11,
      "(": 12,
      ")": 13,
      "*": 14,
      "+": 15,
      ",": 16,
      "-": 17,
      ".": 18,
      "/": 19,
      "0": 20,
      "1": 21,
      "2": 22,
      "3": 23,
      "4": 24,
      "5": 25,
      "6": 26,
      "7": 27,
      "8": 28,
      "9": 29,
      ":": 30,
      ";": 31,
      "<": 32,
      "=": 33,
      ">": 34,
      "?": 35,
      "@": 36,
      "A": 37,
      "B": 38,
      "C": 39,
      "D": 40,
      "E": 41,
      "F": 42,
      "G": 43,
      "H": 44,
      "I": 45,
      "J": 46,
      "K": 47,
      "L": 48,
      "M": 49,
      "N": 50,
      "O": 51,
      "P": 52,
      "Q": 53,
      "R": 54,
      "S": 55,
      "T": 56,
      "U": 57,
      "V": 58,
      "W": 59,
      "X": 60,
      "Y": 61,
      "Z": 62,
      "[": 63,
      "\\": 64,
      "]": 65,
      "^": 66,
      "_": 67,
      "`": 68,
      "a": 69,
      "b": 70,
      "c": 71,
      "d": 72,
      "e": 73,
      "f": 74,
      "g": 75,
      "h": 76,
      "i": 77,
      "j": 78,
      "k": 79,
      "l": 80,
      "m": 81,
      "n": 82,
      "o": 83,
      "p": 84,
      "q": 85,
      "r": 86,
      "s": 87,
      "t": 88,
      "u": 89,
      "v": 90,
      "w": 91,
      "x": 92,
      "y": 93,
      "z": 94,
      "{": 95,
      "|": 96,
      "}": 97,
      "~": 98,
      "": 99,
      "": 100,
      "": 101,
      "": 102,
      "": 103,
      "": 104,
      "": 105,
      "": 106,
      "": 107,
      "": 108,
      "": 109,
      "": 110,
      "": 111,
      "": 112,
      "": 113,
      "": 114,
      "¡": 115,
      "£": 116,
      "¤": 117,
      "¥": 118,
      "§": 119,
      "¨": 120,
      "©": 121,
      "ª": 122,
      "«": 123,
      "¬": 124,
      "­": 125,
      "®": 126,
      "°": 127,
      "±": 128,
      "²": 129,
      "³": 130,
      "´": 131,
      "µ": 132,
      "·": 133,
      "¸": 134,
      "¹": 135,
      "º": 136,
      "»": 137,
      "¼": 138,
      "½": 139,
      "¾": 140,
      "¿": 141,
      "À": 142,
      "Á": 143,
      "Â": 144,
      "Ã": 145,
      "Å": 146,
      "Ç": 147,
      "É": 148,
      "Í": 149,
      "Î": 150,
      "Ð": 151,
      "Ñ": 152,
      "Ó": 153,
      "Õ": 154,
      "Ö": 155,
      "×": 156,
      "Ø": 157,
      "Ú": 158,
      "Ü": 159,
      "ß": 160,
      "à": 161,
      "á": 162,
      "â": 163,
      "ã": 164,
      "ä": 165,
      "å": 166,
      "æ": 167,
      "ç": 168,
      "è": 169,
      "é": 170,
      "ê": 171,
      "ë": 172,
      "ì": 173,
      "í": 174,
      "î": 175,
      "ï": 176,
      "ð": 177,
      "ñ": 178,
      "ò": 179,
      "ó": 180,
      "ô": 181,
      "õ": 182,
      "ö": 183,
      "÷": 184,
      "ø": 185,
      "ú": 186,
      "ü": 187,
      "ý": 188,
      "Ā": 189,
      "ā": 190,
      "ă": 191,
      "ć": 192,
      "Č": 193,
      "č": 194,
      "Đ": 195,
      "ē": 196,
      "ė": 197,
      "ę": 198,
      "ě": 199,
      "ğ": 200,
      "ģ": 201,
      "ī": 202,
      "ĭ": 203,
      "İ": 204,
      "ı": 205,
      "ļ": 206,
      "ľ": 207,
      "Ł": 208,
      "ł": 209,
      "ń": 210,
      "ň": 211,
      "Ō": 212,
      "ō": 213,
      "ŏ": 214,
      "ő": 215,
      "œ": 216,
      "Ř": 217,
      "ř": 218,
      "Ś": 219,
      "ś": 220,
      "Ş": 221,
      "ş": 222,
      "Š": 223,
      "š": 224,
      "ţ": 225,
      "ū": 226,
      "ŭ": 227,
      "ų": 228,
      "ź": 229,
      "Ż": 230,
      "ż": 231,
      "Ž": 232,
      "ž": 233,
      "ơ": 234,
      "ư": 235,
      "ǁ": 236,
      "ǆ": 237,
      "ș": 238,
      "ț": 239,
      "ə": 240,
      "ʿ": 241,
      "˘": 242,
      "˚": 243,
      "˛": 244,
      "˜": 245,
      "̀": 246,
      "́": 247,
      "̂": 248,
      "̃": 249,
      "̄": 250,
      "̆": 251,
      "̇": 252,
      "̈": 253,
      "̊": 254,
      "̌": 255,
      "̣": 256,
      "̧": 257,
      "̨": 258,
      "Β": 259,
      "Δ": 260,
      "Θ": 261,
      "Κ": 262,
      "Λ": 263,
      "Μ": 264,
      "Ω": 265,
      "ί": 266,
      "α": 267,
      "β": 268,
      "γ": 269,
      "ε": 270,
      "ζ": 271,
      "η": 272,
      "θ": 273,
      "ι": 274,
      "κ": 275,
      "λ": 276,
      "μ": 277,
      "ν": 278,
      "ο": 279,
      "π": 280,
      "ρ": 281,
      "σ": 282,
      "τ": 283,
      "φ": 284,
      "ω": 285,
      "ό": 286,
      "І": 287,
      "А": 288,
      "Б": 289,
      "В": 290,
      "Г": 291,
      "Д": 292,
      "Е": 293,
      "Ж": 294,
      "З": 295,
      "И": 296,
      "К": 297,
      "Л": 298,
      "М": 299,
      "Н": 300,
      "О": 301,
      "П": 302,
      "Р": 303,
      "С": 304,
      "Т": 305,
      "У": 306,
      "Х": 307,
      "Ч": 308,
      "Ш": 309,
      "Ы": 310,
      "Я": 311,
      "а": 312,
      "б": 313,
      "в": 314,
      "г": 315,
      "д": 316,
      "е": 317,
      "ж": 318,
      "з": 319,
      "и": 320,
      "й": 321,
      "к": 322,
      "л": 323,
      "м": 324,
      "н": 325,
      "о": 326,
      "п": 327,
      "р": 328,
      "с": 329,
      "т": 330,
      "у": 331,
      "ф": 332,
      "х": 333,
      "ц": 334,
      "ч": 335,
      "ш": 336,
      "щ": 337,
      "ъ": 338,
      "ы": 339,
      "ь": 340,
      "э": 341,
      "ю": 342,
      "я": 343,
      "є": 344,
      "і": 345,
      "ғ": 346,
      "Қ": 347,
      "қ": 348,
      "ң": 349,
      "Ү": 350,
      "ү": 351,
      "ұ": 352,
      "ә": 353,
      "Ө": 354,
      "ө": 355,
      "֠": 356,
      "أ": 357,
      "إ": 358,
      "ا": 359,
      "ة": 360,
      "ت": 361,
      "ح": 362,
      "د": 363,
      "ر": 364,
      "س": 365,
      "ك": 366,
      "ل": 367,
      "م": 368,
      "و": 369,
      "ي": 370,
      "ँ": 371,
      "ं": 372,
      "ः": 373,
      "अ": 374,
      "आ": 375,
      "इ": 376,
      "ई": 377,
      "उ": 378,
      "ऊ": 379,
      "ऋ": 380,
      "ऍ": 381,
      "ए": 382,
      "ऐ": 383,
      "ऑ": 384,
      "ऒ": 385,
      "ओ": 386,
      "औ": 387,
      "क": 388,
      "ख": 389,
      "ग": 390,
      "घ": 391,
      "च": 392,
      "छ": 393,
      "ज": 394,
      "झ": 395,
      "ञ": 396,
      "ट": 397,
      "ठ": 398,
      "ड": 399,
      "ढ": 400,
      "ण": 401,
      "त": 402,
      "थ": 403,
      "द": 404,
      "ध": 405,
      "न": 406,
      "प": 407,
      "फ": 408,
      "ब": 409,
      "भ": 410,
      "म": 411,
      "य": 412,
      "र": 413,
      "ल": 414,
      "व": 415,
      "श": 416,
      "ष": 417,
      "स": 418,
      "ह": 419,
      "़": 420,
      "ा": 421,
      "ि": 422,
      "ी": 423,
      "ु": 424,
      "ू": 425,
      "ृ": 426,
      "ॅ": 427,
      "े": 428,
      "ै": 429,
      "ॉ": 430,
      "ो": 431,
      "ौ": 432,
      "्": 433,
      "।": 434,
      "॥": 435,
      "०": 436,
      "१": 437,
      "२": 438,
      "३": 439,
      "४": 440,
      "५": 441,
      "६": 442,
      "७": 443,
      "८": 444,
      "९": 445,
      "॰": 446,
      "চ": 447,
      "দ": 448,
      "ন": 449,
      "ব": 450,
      "ভ": 451,
      "র": 452,
      "ষ": 453,
      "স": 454,
      "া": 455,
      "ু": 456,
      "্": 457,
      "ḍ": 458,
      "ḥ": 459,
      "ḷ": 460,
      "ṁ": 461,
      "ṃ": 462,
      "ṅ": 463,
      "ṇ": 464,
      "Ṛ": 465,
      "ṛ": 466,
      "ṣ": 467,
      "ṭ": 468,
      "ẻ": 469,
      "ờ": 470,
      "ủ": 471,
      "​": 472,
      "‌": 473,
      "‍": 474,
      "‎": 475,
      "‏": 476,
      "‐": 477,
      "–": 478,
      "—": 479,
      "―": 480,
      "‘": 481,
      "’": 482,
      "“": 483,
      "”": 484,
      "„": 485,
      "†": 486,
      "•": 487,
      "…": 488,
      "‰": 489,
      "′": 490,
      "⁰": 491,
      "⁴": 492,
      "⁵": 493,
      "⁶": 494,
      "⁷": 495,
      "⁻": 496,
      "₀": 497,
      "₁": 498,
      "₂": 499,
      "€": 500,
      "₹": 501,
      "™": 502,
      "⅓": 503,
      "⅔": 504,
      "⅕": 505,
      "⅖": 506,
      "⅗": 507,
      "⅘": 508,
      "⅙": 509,
      "←": 510,
      "→": 511,
      "−": 512,
      "∕": 513,
      "√": 514,
      "∞": 515,
      "∣": 516,
      "∨": 517,
      "∶": 518,
      "≠": 519,
      "≤": 520,
      "≥": 521,
      "⋯": 522,
      "⌈": 523,
      "⌉": 524,
      "⌊": 525,
      "⌋": 526,
      "⌘": 527,
      "─": 528,
      "☺": 529,
      "☻": 530,
      "♪": 531,
      "♫": 532,
      "➣": 533,
      "、": 534,
      "。": 535,
      "あ": 536,
      "い": 537,
      "う": 538,
      "え": 539,
      "か": 540,
      "き": 541,
      "く": 542,
      "け": 543,
      "こ": 544,
      "さ": 545,
      "し": 546,
      "す": 547,
      "せ": 548,
      "そ": 549,
      "た": 550,
      "ち": 551,
      "っ": 552,
      "つ": 553,
      "て": 554,
      "と": 555,
      "な": 556,
      "に": 557,
      "の": 558,
      "は": 559,
      "ひ": 560,
      "へ": 561,
      "ま": 562,
      "み": 563,
      "め": 564,
      "も": 565,
      "よ": 566,
      "ら": 567,
      "り": 568,
      "る": 569,
      "れ": 570,
      "を": 571,
      "ん": 572,
      "゙": 573,
      "゚": 574,
      "ァ": 575,
      "ア": 576,
      "ィ": 577,
      "イ": 578,
      "ウ": 579,
      "エ": 580,
      "ォ": 581,
      "オ": 582,
      "カ": 583,
      "ク": 584,
      "コ": 585,
      "サ": 586,
      "シ": 587,
      "ス": 588,
      "タ": 589,
      "ッ": 590,
      "テ": 591,
      "ト": 592,
      "ニ": 593,
      "ネ": 594,
      "ハ": 595,
      "ヒ": 596,
      "フ": 597,
      "ヘ": 598,
      "ホ": 599,
      "マ": 600,
      "ム": 601,
      "メ": 602,
      "モ": 603,
      "ョ": 604,
      "ラ": 605,
      "リ": 606,
      "ル": 607,
      "レ": 608,
      "ロ": 609,
      "ワ": 610,
      "ン": 611,
      "ー": 612,
      "一": 613,
      "上": 614,
      "下": 615,
      "不": 616,
      "両": 617,
      "並": 618,
      "了": 619,
      "他": 620,
      "付": 621,
      "作": 622,
      "使": 623,
      "保": 624,
      "信": 625,
      "傭": 626,
      "優": 627,
      "元": 628,
      "先": 629,
      "入": 630,
      "全": 631,
      "共": 632,
      "内": 633,
      "再": 634,
      "出": 635,
      "分": 636,
      "切": 637,
      "利": 638,
      "削": 639,
      "前": 640,
      "力": 641,
      "加": 642,
      "動": 643,
      "化": 644,
      "匿": 645,
      "参": 646,
      "可": 647,
      "同": 648,
      "名": 649,
      "否": 650,
      "含": 651,
      "員": 652,
      "報": 653,
      "境": 654,
      "変": 655,
      "外": 656,
      "大": 657,
      "失": 658,
      "妖": 659,
      "始": 660,
      "字": 661,
      "存": 662,
      "定": 663,
      "容": 664,
      "対": 665,
      "小": 666,
      "広": 667,
      "度": 668,
      "庸": 669,
      "当": 670,
      "待": 671,
      "後": 672,
      "従": 673,
      "必": 674,
      "悠": 675,
      "情": 676,
      "態": 677,
      "憂": 678,
      "成": 679,
      "戻": 680,
      "所": 681,
      "手": 682,
      "打": 683,
      "承": 684,
      "択": 685,
      "抹": 686,
      "拒": 687,
      "接": 688,
      "揺": 689,
      "擁": 690,
      "敗": 691,
      "数": 692,
      "断": 693,
      "新": 694,
      "方": 695,
      "既": 696,
      "明": 697,
      "時": 698,
      "曜": 699,
      "更": 700,
      "替": 701,
      "最": 702,
      "有": 703,
      "未": 704,
      "本": 705,
      "様": 706,
      "正": 707,
      "毎": 708,
      "求": 709,
      "洋": 710,
      "消": 711,
      "満": 712,
      "溶": 713,
      "漢": 714,
      "点": 715,
      "熔": 716,
      "版": 717,
      "状": 718,
      "環": 719,
      "用": 720,
      "由": 721,
      "病": 722,
      "登": 723,
      "直": 724,
      "知": 725,
      "短": 726,
      "確": 727,
      "示": 728,
      "秒": 729,
      "細": 730,
      "終": 731,
      "続": 732,
      "編": 733,
      "置": 734,
      "羊": 735,
      "耀": 736,
      "者": 737,
      "能": 738,
      "脱": 739,
      "自": 740,
      "致": 741,
      "般": 742,
      "色": 743,
      "葉": 744,
      "行": 745,
      "表": 746,
      "複": 747,
      "要": 748,
      "見": 749,
      "規": 750,
      "覧": 751,
      "設": 752,
      "詳": 753,
      "認": 754,
      "謡": 755,
      "象": 756,
      "起": 757,
      "越": 758,
      "追": 759,
      "送": 760,
      "通": 761,
      "連": 762,
      "遥": 763,
      "選": 764,
      "重": 765,
      "録": 766,
      "開": 767,
      "関": 768,
      "除": 769,
      "集": 770,
      "離": 771,
      "順": 772,
      "預": 773,
      "째": 774,
      "": 775,
      "": 776,
      "ﬁ": 777,
      "ﬂ": 778,
      "﻿": 779,
      "：": 780,
      "？": 781,
      "�": 782,
      "th": 783,
      "in": 784,
      "the": 785,
      "an": 786,
      "re": 787,
      "on": 788,
      "er": 789,
      "at": 790,
      "en": 791,
      "is": 792,
      "or": 793,
      "of": 794,
      "al": 795,
      "ou": 796,
      "es": 797,
      "ed": 798,
      "and": 799,
      "ar": 800,
      "to": 801,
      "it": 802,
      "as": 803,
      "ing": 804,
      "ion": 805,
      "ic": 806,
      "le": 807,
      "he": 808,
      "om": 809,
      "ent": 810,
      "st": 811,
      "se": 812,
      "be": 813,
      "il": 814,
      "ve": 815,
      "ct": 816,
      "for": 817,
      "de": 818,
      "ro": 819,
      "wh": 820,
      "no": 821,
      "ch": 822,
      "ha": 823,
      "ce": 824,
      "ation": 825,
      "nd": 826,
      "im": 827,
      "ay": 828,
      "am": 829,
      "ly": 830,
      "you": 831,
      "ver": 832,
      "id": 833,
      "ur": 834,
      "ut": 835,
      "lo": 836,
      "The": 837,
      "ir": 838,
      "li": 839,
      "ad": 840,
      "that": 841,
      "are": 842,
      "tr": 843,
      "ag": 844,
      "ol": 845,
      "su": 846,
      "ab": 847,
      "ment": 848,
      "ter": 849,
      "we": 850,
      "con": 851,
      "ith": 852,
      "ig": 853,
      "not": 854,
      "pe": 855,
      "ill": 856,
      "all": 857,
      "res": 858,
      "ll": 859,
      "com": 860,
      "us": 861,
      "with": 862,
      "pro": 863,
      "un": 864,
      "ess": 865,
      "ul": 866,
      "od": 867,
      "ac": 868,
      "fr": 869,
      "et": 870,
      "ate": 871,
      "te": 872,
      "sh": 873,
      "if": 874,
      "po": 875,
      "per": 876,
      "ain": 877,
      "ld": 878,
      "his": 879,
      "ther": 880,
      "by": 881,
      "our": 882,
      "so": 883,
      "ex": 884,
      "ak": 885,
      "fe": 886,
      "do": 887,
      "me": 888,
      "was": 889,
      "have": 890,
      "from": 891,
      "iv": 892,
      "ne": 893,
      "ap": 894,
      "they": 895,
      "will": 896,
      "mo": 897,
      "them": 898,
      "ts": 899,
      "pl": 900,
      "ity": 901,
      "op": 902,
      "who": 903,
      "est": 904,
      "has": 905,
      "ri": 906,
      "this": 907,
      "ah": 908,
      "ht": 909,
      "ich": 910,
      "one": 911,
      "ers": 912,
      "He": 913,
      "ord": 914,
      "ind": 915,
      "qu": 916,
      "ies": 917,
      "ction": 918,
      "ive": 919,
      "which": 920,
      "art": 921,
      "any": 922,
      "red": 923,
      "um": 924,
      "Ind": 925,
      "In": 926,
      "end": 927,
      "ould": 928,
      "All": 929,
      "pr": 930,
      "their": 931,
      "ia": 932,
      "out": 933,
      "ard": 934,
      "ant": 935,
      "ge": 936,
      "ci": 937,
      "age": 938,
      "ure": 939,
      "dis": 940,
      "em": 941,
      "act": 942,
      "gr": 943,
      "ous": 944,
      "oun": 945,
      "up": 946,
      "wor": 947,
      "over": 948,
      "ear": 949,
      "We": 950,
      "ow": 951,
      "sa": 952,
      "ong": 953,
      "au": 954,
      "Allah": 955,
      "And": 956,
      "ust": 957,
      "por": 958,
      "ish": 959,
      "but": 960,
      "now": 961,
      "ist": 962,
      "your": 963,
      "ated": 964,
      "fo": 965,
      "und": 966,
      "av": 967,
      "ance": 968,
      "ev": 969,
      "other": 970,
      "able": 971,
      "cl": 972,
      "ma": 973,
      "ke": 974,
      "go": 975,
      "ra": 976,
      "ose": 977,
      "ans": 978,
      "ren": 979,
      "its": 980,
      "can": 981,
      "ight": 982,
      "ame": 983,
      "India": 984,
      "form": 985,
      "there": 986,
      "pt": 987,
      "ome": 988,
      "ass": 989,
      "oug": 990,
      "ide": 991,
      "ud": 992,
      "low": 993,
      "Th": 994,
      "him": 995,
      "ever": 996,
      "ach": 997,
      "port": 998,
      "ary": 999,
      "had": 1000,
      "man": 1001,
      "ast": 1002,
      "ip": 1003,
      "cre": 1004,
      "ice": 1005,
      "been": 1006,
      "af": 1007,
      "comp": 1008,
      "ok": 1009,
      "coun": 1010,
      "co": 1011,
      "part": 1012,
      "ence": 1013,
      "ople": 1014,
      "were": 1015,
      "ical": 1016,
      "know": 1017,
      "fore": 1018,
      "20": 1019,
      "ie": 1020,
      "way": 1021,
      "ions": 1022,
      "tim": 1023,
      "ire": 1024,
      "pre": 1025,
      "those": 1026,
      "It": 1027,
      "du": 1028,
      "when": 1029,
      "fa": 1030,
      "ine": 1031,
      "said": 1032,
      "Wh": 1033,
      "people": 1034,
      "br": 1035,
      "ake": 1036,
      "beli": 1037,
      "bo": 1038,
      "iz": 1039,
      "ber": 1040,
      "pres": 1041,
      "bl": 1042,
      "ser": 1043,
      "ound": 1044,
      "19": 1045,
      "under": 1046,
      "shall": 1047,
      "ang": 1048,
      "el": 1049,
      "str": 1050,
      "ign": 1051,
      "ens": 1052,
      "day": 1053,
      "pos": 1054,
      "ile": 1055,
      "je": 1056,
      "ations": 1057,
      "comm": 1058,
      "come": 1059,
      "God": 1060,
      "ase": 1061,
      "old": 1062,
      "what": 1063,
      "here": 1064,
      "ings": 1065,
      "ial": 1066,
      "also": 1067,
      "rit": 1068,
      "her": 1069,
      "work": 1070,
      "ian": 1071,
      "ough": 1072,
      "ult": 1073,
      "cess": 1074,
      "sel": 1075,
      "ble": 1076,
      "may": 1077,
      "ted": 1078,
      "ack": 1079,
      "ef": 1080,
      "tain": 1081,
      "This": 1082,
      "prov": 1083,
      "Lord": 1084,
      "then": 1085,
      "sp": 1086,
      "ful": 1087,
      "ise": 1088,
      "some": 1089,
      "ep": 1090,
      "spe": 1091,
      "ater": 1092,
      "ace": 1093,
      "ath": 1094,
      "overn": 1095,
      "St": 1096,
      "try": 1097,
      "ition": 1098,
      "ory": 1099,
      "ident": 1100,
      "ally": 1101,
      "ail": 1102,
      "year": 1103,
      "tw": 1104,
      "ree": 1105,
      "only": 1106,
      "sub": 1107,
      "would": 1108,
      "urn": 1109,
      "my": 1110,
      "ple": 1111,
      "ious": 1112,
      "Ch": 1113,
      "such": 1114,
      "time": 1115,
      "ot": 1116,
      "wn": 1117,
      "ject": 1118,
      "igh": 1119,
      "ty": 1120,
      "ue": 1121,
      "lig": 1122,
      "than": 1123,
      "ause": 1124,
      "new": 1125,
      "son": 1126,
      "ck": 1127,
      "cent": 1128,
      "like": 1129,
      "ational": 1130,
      "ities": 1131,
      "made": 1132,
      "lect": 1133,
      "gre": 1134,
      "ress": 1135,
      "after": 1136,
      "ward": 1137,
      "ob": 1138,
      "ite": 1139,
      "thing": 1140,
      "min": 1141,
      "Re": 1142,
      "sc": 1143,
      "more": 1144,
      "eng": 1145,
      "should": 1146,
      "ho": 1147,
      "ild": 1148,
      "bet": 1149,
      "about": 1150,
      "say": 1151,
      "into": 1152,
      "gu": 1153,
      "off": 1154,
      "Pr": 1155,
      "cont": 1156,
      "overnment": 1157,
      "int": 1158,
      "As": 1159,
      "00": 1160,
      "cur": 1161,
      "Sh": 1162,
      "tern": 1163,
      "ces": 1164,
      "giv": 1165,
      "But": 1166,
      "see": 1167,
      "So": 1168,
      "They": 1169,
      "ark": 1170,
      "vers": 1171,
      "ave": 1172,
      "Un": 1173,
      "eve": 1174,
      "Pro": 1175,
      "cer": 1176,
      "Com": 1177,
      "lop": 1178,
      "ness": 1179,
      "cial": 1180,
      "des": 1181,
      "reg": 1182,
      "aw": 1183,
      "two": 1184,
      "stit": 1185,
      "ied": 1186,
      "sy": 1187,
      "turn": 1188,
      "led": 1189,
      "ry": 1190,
      "fir": 1191,
      "ific": 1192,
      "used": 1193,
      "Con": 1194,
      "get": 1195,
      "deed": 1196,
      "ship": 1197,
      "good": 1198,
      "ph": 1199,
      "set": 1200,
      "these": 1201,
      "ener": 1202,
      "ates": 1203,
      "serv": 1204,
      "ank": 1205,
      "ments": 1206,
      "ual": 1207,
      "cept": 1208,
      "har": 1209,
      "ange": 1210,
      "before": 1211,
      "stitut": 1212,
      "mer": 1213,
      "mis": 1214,
      "log": 1215,
      "again": 1216,
      "His": 1217,
      "mon": 1218,
      "row": 1219,
      "..": 1220,
      "thr": 1221,
      "where": 1222,
      "cause": 1223,
      "life": 1224,
      "ash": 1225,
      "feren": 1226,
      "cy": 1227,
      "Mo": 1228,
      "call": 1229,
      "self": 1230,
      "ubl": 1231,
      "ors": 1232,
      "ily": 1233,
      "most": 1234,
      "ink": 1235,
      "well": 1236,
      "si": 1237,
      "ves": 1238,
      "fer": 1239,
      "person": 1240,
      "For": 1241,
      "ting": 1242,
      "An": 1243,
      "sion": 1244,
      "ating": 1245,
      "very": 1246,
      "pol": 1247,
      "Se": 1248,
      "fol": 1249,
      "mem": 1250,
      "Ex": 1251,
      "De": 1252,
      "Indian": 1253,
      "resident": 1254,
      "med": 1255,
      "pur": 1256,
      "col": 1257,
      "world": 1258,
      "add": 1259,
      "If": 1260,
      "being": 1261,
      "You": 1262,
      "par": 1263,
      "val": 1264,
      "att": 1265,
      "oc": 1266,
      "own": 1267,
      "long": 1268,
      "rel": 1269,
      "through": 1270,
      "ced": 1271,
      "ru": 1272,
      "stru": 1273,
      "deve": 1274,
      "There": 1275,
      "mat": 1276,
      "wer": 1277,
      "cons": 1278,
      "ative": 1279,
      "hi": 1280,
      "less": 1281,
      "section": 1282,
      "),": 1283,
      "read": 1284,
      "develop": 1285,
      "every": 1286,
      "fl": 1287,
      "trans": 1288,
      "ict": 1289,
      "land": 1290,
      "vis": 1291,
      "ning": 1292,
      "hel": 1293,
      "dif": 1294,
      "down": 1295,
      "ati": 1296,
      "ye": 1297,
      "stand": 1298,
      "Is": 1299,
      "main": 1300,
      "produ": 1301,
      "En": 1302,
      "fin": 1303,
      "ext": 1304,
      "rest": 1305,
      "tri": 1306,
      "No": 1307,
      "ask": 1308,
      "sure": 1309,
      "ism": 1310,
      "lear": 1311,
      "just": 1312,
      "war": 1313,
      "aj": 1314,
      "ages": 1315,
      "use": 1316,
      "make": 1317,
      "uring": 1318,
      "ten": 1319,
      "ents": 1320,
      "inv": 1321,
      "country": 1322,
      "ween": 1323,
      "char": 1324,
      "tru": 1325,
      "tak": 1326,
      "ided": 1327,
      "President": 1328,
      "Government": 1329,
      ").": 1330,
      "put": 1331,
      "between": 1332,
      "follow": 1333,
      "arch": 1334,
      "fic": 1335,
      "nor": 1336,
      "stem": 1337,
      "inte": 1338,
      "bu": 1339,
      "ular": 1340,
      "many": 1341,
      "ick": 1342,
      "201": 1343,
      "believe": 1344,
      "men": 1345,
      "ublic": 1346,
      "Min": 1347,
      "gan": 1348,
      "first": 1349,
      "back": 1350,
      "ural": 1351,
      "upon": 1352,
      "sha": 1353,
      "even": 1354,
      "could": 1355,
      "did": 1356,
      "hand": 1357,
      "Him": 1358,
      "ms": 1359,
      "pect": 1360,
      "ta": 1361,
      "Act": 1362,
      "pp": 1363,
      "cour": 1364,
      "sign": 1365,
      "hav": 1366,
      "num": 1367,
      "years": 1368,
      "ters": 1369,
      "cord": 1370,
      "given": 1371,
      "lim": 1372,
      "let": 1373,
      "came": 1374,
      "tem": 1375,
      "present": 1376,
      "uc": 1377,
      "mit": 1378,
      "den": 1379,
      "ility": 1380,
      "earth": 1381,
      "peri": 1382,
      "cap": 1383,
      "against": 1384,
      "ited": 1385,
      "als": 1386,
      "fect": 1387,
      "cond": 1388,
      "among": 1389,
      "play": 1390,
      "right": 1391,
      "mess": 1392,
      "Bo": 1393,
      "ought": 1394,
      "writ": 1395,
      "ature": 1396,
      "take": 1397,
      "requ": 1398,
      "sent": 1399,
      "place": 1400,
      "ond": 1401,
      "ised": 1402,
      "soci": 1403,
      "need": 1404,
      "tal": 1405,
      "ved": 1406,
      "To": 1407,
      "formation": 1408,
      "incl": 1409,
      "give": 1410,
      "word": 1411,
      "great": 1412,
      "Ar": 1413,
      "mark": 1414,
      "irect": 1415,
      "iew": 1416,
      "var": 1417,
      "inter": 1418,
      "cal": 1419,
      "200": 1420,
      "pa": 1421,
      "ner": 1422,
      "cr": 1423,
      "car": 1424,
      "ices": 1425,
      "cri": 1426,
      "power": 1427,
      "On": 1428,
      "uch": 1429,
      "help": 1430,
      "vel": 1431,
      "Ad": 1432,
      "system": 1433,
      "lar": 1434,
      "Minis": 1435,
      "pass": 1436,
      "ased": 1437,
      "does": 1438,
      "alth": 1439,
      "cor": 1440,
      "gram": 1441,
      "State": 1442,
      "lish": 1443,
      "ade": 1444,
      "ants": 1445,
      "hum": 1446,
      "cho": 1447,
      "child": 1448,
      "ures": 1449,
      "ven": 1450,
      "because": 1451,
      "ins": 1452,
      "Al": 1453,
      "plo": 1454,
      "jo": 1455,
      "must": 1456,
      "oper": 1457,
      "fact": 1458,
      "lit": 1459,
      "she": 1460,
      "When": 1461,
      "Ne": 1462,
      "IN": 1463,
      "name": 1464,
      "thor": 1465,
      "count": 1466,
      "qual": 1467,
      "plic": 1468,
      "sup": 1469,
      "import": 1470,
      "ital": 1471,
      "Our": 1472,
      "ham": 1473,
      "ides": 1474,
      "iness": 1475,
      "wom": 1476,
      "ouse": 1477,
      "prom": 1478,
      "gener": 1479,
      "water": 1480,
      "les": 1481,
      "ror": 1482,
      "differen": 1483,
      "pend": 1484,
      "ivers": 1485,
      "ese": 1486,
      "how": 1487,
      "ub": 1488,
      "found": 1489,
      "order": 1490,
      "evers": 1491,
      "tribut": 1492,
      "leg": 1493,
      "ss": 1494,
      "Day": 1495,
      "hold": 1496,
      "tre": 1497,
      "ES": 1498,
      "state": 1499,
      "far": 1500,
      "selves": 1501,
      "bod": 1502,
      "light": 1503,
      "resp": 1504,
      "while": 1505,
      "away": 1506,
      "Hind": 1507,
      "che": 1508,
      "cus": 1509,
      "fil": 1510,
      "lead": 1511,
      "ort": 1512,
      "want": 1513,
      "ps": 1514,
      "pay": 1515,
      "ata": 1516,
      "ft": 1517,
      "each": 1518,
      "Do": 1519,
      "ution": 1520,
      "ified": 1521,
      "clo": 1522,
      "sur": 1523,
      "fam": 1524,
      "number": 1525,
      "ral": 1526,
      "ety": 1527,
      "mal": 1528,
      "heav": 1529,
      "dec": 1530,
      "angu": 1531,
      "ys": 1532,
      "conom": 1533,
      "book": 1534,
      "mission": 1535,
      "Cent": 1536,
      ".\"": 1537,
      "during": 1538,
      "view": 1539,
      "high": 1540,
      "believers": 1541,
      "organ": 1542,
      "move": 1543,
      "ctions": 1544,
      "aug": 1545,
      "case": 1546,
      "logy": 1547,
      "sm": 1548,
      "same": 1549,
      "spec": 1550,
      "dev": 1551,
      "ime": 1552,
      "ledge": 1553,
      "dr": 1554,
      "law": 1555,
      "ls": 1556,
      "Res": 1557,
      "whom": 1558,
      "cas": 1559,
      "ists": 1560,
      "Be": 1561,
      "change": 1562,
      "issu": 1563,
      "dow": 1564,
      "ars": 1565,
      "Mu": 1566,
      "rece": 1567,
      "development": 1568,
      "called": 1569,
      "sul": 1570,
      "Then": 1571,
      "process": 1572,
      "fac": 1573,
      "ired": 1574,
      "list": 1575,
      "ik": 1576,
      "ics": 1577,
      "ives": 1578,
      "both": 1579,
      "Par": 1580,
      "ana": 1581,
      "ways": 1582,
      "certain": 1583,
      "bus": 1584,
      "tech": 1585,
      "open": 1586,
      "look": 1587,
      "og": 1588,
      "My": 1589,
      "hy": 1590,
      "stud": 1591,
      "another": 1592,
      "EN": 1593,
      "cro": 1594,
      "things": 1595,
      "public": 1596,
      "educ": 1597,
      "mind": 1598,
      "truth": 1599,
      "mak": 1600,
      "etc": 1601,
      "commun": 1602,
      "known": 1603,
      "wards": 1604,
      "bal": 1605,
      "bro": 1606,
      "kind": 1607,
      "la": 1608,
      "Mus": 1609,
      "fu": 1610,
      "head": 1611,
      "Tr": 1612,
      "return": 1613,
      "file": 1614,
      "hear": 1615,
      "sing": 1616,
      "knowledge": 1617,
      "period": 1618,
      "Of": 1619,
      "indust": 1620,
      "econom": 1621,
      "comple": 1622,
      "gg": 1623,
      "ared": 1624,
      "sto": 1625,
      "ount": 1626,
      "io": 1627,
      "different": 1628,
      "indeed": 1629,
      "hal": 1630,
      "partic": 1631,
      "10": 1632,
      "sect": 1633,
      "ize": 1634,
      "18": 1635,
      "What": 1636,
      "ann": 1637,
      "cut": 1638,
      "National": 1639,
      "three": 1640,
      "without": 1641,
      "suc": 1642,
      "Mess": 1643,
      "find": 1644,
      "bers": 1645,
      "show": 1646,
      "ision": 1647,
      "mar": 1648,
      "ving": 1649,
      "account": 1650,
      "bed": 1651,
      "body": 1652,
      "win": 1653,
      "includ": 1654,
      "avail": 1655,
      "relig": 1656,
      "respect": 1657,
      "pun": 1658,
      "AN": 1659,
      "author": 1660,
      "bre": 1661,
      "interest": 1662,
      "stitution": 1663,
      "istr": 1664,
      "much": 1665,
      "except": 1666,
      "start": 1667,
      "means": 1668,
      "line": 1669,
      "bar": 1670,
      "wr": 1671,
      "contin": 1672,
      "appe": 1673,
      "ON": 1674,
      "adv": 1675,
      "king": 1676,
      "program": 1677,
      "fear": 1678,
      "ived": 1679,
      "sol": 1680,
      "Shri": 1681,
      "ric": 1682,
      "grow": 1683,
      "information": 1684,
      "ament": 1685,
      "dom": 1686,
      "tax": 1687,
      "ID": 1688,
      "taken": 1689,
      "support": 1690,
      "...": 1691,
      "langu": 1692,
      "sed": 1693,
      "Man": 1694,
      "last": 1695,
      "sin": 1696,
      "tle": 1697,
      "ield": 1698,
      "ele": 1699,
      "grou": 1700,
      "sk": 1701,
      "direct": 1702,
      "unto": 1703,
      "real": 1704,
      "post": 1705,
      "Say": 1706,
      "government": 1707,
      "OF": 1708,
      "incre": 1709,
      "esh": 1710,
      "vir": 1711,
      "ither": 1712,
      "aim": 1713,
      "ya": 1714,
      "human": 1715,
      "sible": 1716,
      "That": 1717,
      "Or": 1718,
      "think": 1719,
      "prev": 1720,
      "mod": 1721,
      "rent": 1722,
      "PR": 1723,
      "ished": 1724,
      "inst": 1725,
      "member": 1726,
      "ben": 1727,
      "sim": 1728,
      "AT": 1729,
      ":%": 1730,
      "women": 1731,
      "unt": 1732,
      "Ac": 1733,
      "ized": 1734,
      "hether": 1735,
      "prof": 1736,
      "ai": 1737,
      "clear": 1738,
      "happ": 1739,
      "15": 1740,
      "vol": 1741,
      "small": 1742,
      "ix": 1743,
      "meet": 1744,
      "point": 1745,
      "cu": 1746,
      "ned": 1747,
      "ca": 1748,
      "project": 1749,
      "search": 1750,
      "might": 1751,
      "RB": 1752,
      "created": 1753,
      "pen": 1754,
      "itu": 1755,
      "allow": 1756,
      "ablish": 1757,
      "lease": 1758,
      "evil": 1759,
      "company": 1760,
      "ched": 1761,
      "proper": 1762,
      "cult": 1763,
      "app": 1764,
      "Go": 1765,
      "Me": 1766,
      "action": 1767,
      "sou": 1768,
      "pet": 1769,
      "div": 1770,
      "cannot": 1771,
      "These": 1772,
      "exam": 1773,
      "effect": 1774,
      "vi": 1775,
      "plan": 1776,
      "AR": 1777,
      "important": 1778,
      "ses": 1779,
      "become": 1780,
      "bit": 1781,
      "ify": 1782,
      "bring": 1783,
      "New": 1784,
      "believ": 1785,
      "han": 1786,
      "ason": 1787,
      "Who": 1788,
      "ient": 1789,
      "ug": 1790,
      "cell": 1791,
      "lected": 1792,
      "Book": 1793,
      "message": 1794,
      "business": 1795,
      "ency": 1796,
      "hist": 1797,
      "Ram": 1798,
      "conne": 1799,
      "ends": 1800,
      "lam": 1801,
      "depend": 1802,
      "mor": 1803,
      "today": 1804,
      "tion": 1805,
      "ider": 1806,
      "ER": 1807,
      "going": 1808,
      "never": 1809,
      "surely": 1810,
      "establish": 1811,
      "wrong": 1812,
      "too": 1813,
      "income": 1814,
      "ready": 1815,
      "nam": 1816,
      "sum": 1817,
      "chang": 1818,
      "punish": 1819,
      "12": 1820,
      "bes": 1821,
      "At": 1822,
      "days": 1823,
      "fri": 1824,
      "activ": 1825,
      "children": 1826,
      "mand": 1827,
      "best": 1828,
      "ones": 1829,
      "Pl": 1830,
      "bank": 1831,
      "gress": 1832,
      "air": 1833,
      "older": 1834,
      "fun": 1835,
      "quest": 1836,
      "Muslim": 1837,
      "ashtr": 1838,
      "Minister": 1839,
      "four": 1840,
      "ator": 1841,
      "icy": 1842,
      "di": 1843,
      "large": 1844,
      "emplo": 1845,
      "various": 1846,
      "Lo": 1847,
      "applic": 1848,
      "within": 1849,
      "cture": 1850,
      "ense": 1851,
      "nology": 1852,
      "gy": 1853,
      "wit": 1854,
      "faith": 1855,
      "themselves": 1856,
      "jud": 1857,
      "bas": 1858,
      "month": 1859,
      "though": 1860,
      "success": 1861,
      "better": 1862,
      "ech": 1863,
      "times": 1864,
      "others": 1865,
      "ines": 1866,
      "date": 1867,
      "face": 1868,
      "ore": 1869,
      "Af": 1870,
      "tex": 1871,
      "ination": 1872,
      "spir": 1873,
      "done": 1874,
      "ternal": 1875,
      "ali": 1876,
      "dra": 1877,
      "plain": 1878,
      "proble": 1879,
      "amount": 1880,
      "suf": 1881,
      "sess": 1882,
      "IT": 1883,
      "Raj": 1884,
      "pri": 1885,
      "respon": 1886,
      "left": 1887,
      "position": 1888,
      "ceed": 1889,
      "window": 1890,
      "accept": 1891,
      "ica": 1892,
      "polit": 1893,
      "level": 1894,
      "abo": 1895,
      "gn": 1896,
      "wever": 1897,
      "concer": 1898,
      "contro": 1899,
      "Eng": 1900,
      "build": 1901,
      "education": 1902,
      "net": 1903,
      "ref": 1904,
      "address": 1905,
      "Ab": 1906,
      "ible": 1907,
      "keep": 1908,
      "due": 1909,
      "eas": 1910,
      "worship": 1911,
      "Le": 1912,
      "inal": 1913,
      "cient": 1914,
      "mad": 1915,
      "cover": 1916,
      "free": 1917,
      "remain": 1918,
      "tries": 1919,
      "path": 1920,
      "ari": 1921,
      "arr": 1922,
      "trad": 1923,
      "ically": 1924,
      "righ": 1925,
      "social": 1926,
      "tract": 1927,
      "az": 1928,
      "full": 1929,
      "ont": 1930,
      "ability": 1931,
      "available": 1932,
      "invest": 1933,
      "ization": 1934,
      "comes": 1935,
      "ulation": 1936,
      "que": 1937,
      "grap": 1938,
      "ferred": 1939,
      "199": 1940,
      "Gr": 1941,
      "One": 1942,
      "cted": 1943,
      "house": 1944,
      "ances": 1945,
      "ENT": 1946,
      "towards": 1947,
      "Im": 1948,
      "father": 1949,
      "exp": 1950,
      "enter": 1951,
      "tee": 1952,
      "dist": 1953,
      "pop": 1954,
      "cle": 1955,
      "resul": 1956,
      "equ": 1957,
      "benef": 1958,
      "appro": 1959,
      "reach": 1960,
      "Ma": 1961,
      "Central": 1962,
      "conf": 1963,
      "health": 1964,
      "non": 1965,
      "offic": 1966,
      "enger": 1967,
      "care": 1968,
      "ton": 1969,
      "TH": 1970,
      "contain": 1971,
      "prote": 1972,
      "Bhav": 1973,
      "understand": 1974,
      "pose": 1975,
      "run": 1976,
      "live": 1977,
      "exist": 1978,
      "plac": 1979,
      "ger": 1980,
      "ury": 1981,
      "ii": 1982,
      "iful": 1983,
      "cording": 1984,
      "seen": 1985,
      "Dis": 1986,
      "ged": 1987,
      "fort": 1988,
      "chool": 1989,
      "class": 1990,
      "heavens": 1991,
      "Indeed": 1992,
      "Mah": 1993,
      "ended": 1994,
      "language": 1995,
      "value": 1996,
      "ption": 1997,
      "mb": 1998,
      "text": 1999,
      "top": 2000,
      "Ho": 2001,
      "Po": 2002,
      "gether": 2003,
      "thou": 2004,
      "ium": 2005,
      "brought": 2006,
      "Ser": 2007,
      "ird": 2008,
      "iversity": 2009,
      "ples": 2010,
      "national": 2011,
      "loc": 2012,
      "tail": 2013,
      "punishment": 2014,
      "command": 2015,
      "field": 2016,
      "na": 2017,
      "Islam": 2018,
      "itions": 2019,
      "family": 2020,
      "IS": 2021,
      "bs": 2022,
      "sche": 2023,
      "together": 2024,
      "lay": 2025,
      "000": 2026,
      "11": 2027,
      "Wor": 2028,
      "Gu": 2029,
      "ention": 2030,
      "got": 2031,
      "Co": 2032,
      "dest": 2033,
      "tar": 2034,
      "regard": 2035,
      "Rs": 2036,
      "fair": 2037,
      "food": 2038,
      "Del": 2039,
      "poin": 2040,
      "product": 2041,
      "ually": 2042,
      "clause": 2043,
      "something": 2044,
      "death": 2045,
      "ks": 2046,
      "comput": 2047,
      "associ": 2048,
      "apati": 2049,
      "scri": 2050,
      "words": 2051,
      "ately": 2052,
      "market": 2053,
      "group": 2054,
      "Br": 2055,
      "service": 2056,
      "nat": 2057,
      "She": 2058,
      "Bhavan": 2059,
      "agement": 2060,
      "wish": 2061,
      "ale": 2062,
      "true": 2063,
      "amp": 2064,
      "flow": 2065,
      "key": 2066,
      "pray": 2067,
      "Add": 2068,
      "hard": 2069,
      "aren": 2070,
      "Sub": 2071,
      "vill": 2072,
      "ification": 2073,
      "nation": 2074,
      "maj": 2075,
      "Ver": 2076,
      "Can": 2077,
      "Your": 2078,
      "blo": 2079,
      "ternational": 2080,
      "der": 2081,
      "reve": 2082,
      "ground": 2083,
      "ource": 2084,
      "uty": 2085,
      "fall": 2086,
      "ateg": 2087,
      "god": 2088,
      "phe": 2089,
      "yed": 2090,
      "Amer": 2091,
      "test": 2092,
      "ivid": 2093,
      "reason": 2094,
      "gl": 2095,
      "matter": 2096,
      "near": 2097,
      "object": 2098,
      "love": 2099,
      "subject": 2100,
      "provided": 2101,
      "data": 2102,
      "area": 2103,
      "ential": 2104,
      "economic": 2105,
      "already": 2106,
      "gave": 2107,
      "Fr": 2108,
      "Rashtr": 2109,
      "Au": 2110,
      "urther": 2111,
      "night": 2112,
      "second": 2113,
      "gen": 2114,
      "pain": 2115,
      "Cha": 2116,
      "whole": 2117,
      "based": 2118,
      "met": 2119,
      "half": 2120,
      "uk": 2121,
      "rep": 2122,
      "ference": 2123,
      "reng": 2124,
      "Spe": 2125,
      "fund": 2126,
      "isions": 2127,
      "Gand": 2128,
      "acy": 2129,
      "Sing": 2130,
      "thy": 2131,
      "fully": 2132,
      "ising": 2133,
      "charact": 2134,
      "ala": 2135,
      "equal": 2136,
      "capital": 2137,
      "instru": 2138,
      "Delhi": 2139,
      "anch": 2140,
      "liter": 2141,
      "took": 2142,
      "Those": 2143,
      "perform": 2144,
      "commit": 2145,
      "ey": 2146,
      "side": 2147,
      "oney": 2148,
      "signs": 2149,
      "Rashtrapati": 2150,
      "Am": 2151,
      "onment": 2152,
      "services": 2153,
      "term": 2154,
      "countries": 2155,
      "following": 2156,
      "pract": 2157,
      "heart": 2158,
      "prin": 2159,
      "making": 2160,
      "above": 2161,
      "iding": 2162,
      "16": 2163,
      "AL": 2164,
      "Pre": 2165,
      "Brit": 2166,
      "fail": 2167,
      "little": 2168,
      "including": 2169,
      "ues": 2170,
      "giving": 2171,
      "IC": 2172,
      "cost": 2173,
      "aged": 2174,
      "dou": 2175,
      "himself": 2176,
      "provide": 2177,
      "ional": 2178,
      "ib": 2179,
      "reed": 2180,
      "ined": 2181,
      "few": 2182,
      "areas": 2183,
      "streng": 2184,
      "lies": 2185,
      "major": 2186,
      "particular": 2187,
      "consider": 2188,
      "liament": 2189,
      "pal": 2190,
      "pat": 2191,
      "train": 2192,
      "current": 2193,
      "teach": 2194,
      "ancial": 2195,
      "having": 2196,
      "tic": 2197,
      "Pe": 2198,
      "necess": 2199,
      "erc": 2200,
      "mes": 2201,
      "ief": 2202,
      "rate": 2203,
      "type": 2204,
      "init": 2205,
      "still": 2206,
      "special": 2207,
      "ports": 2208,
      "complete": 2209,
      "ste": 2210,
      "ilities": 2211,
      "load": 2212,
      "possible": 2213,
      "30": 2214,
      "isation": 2215,
      "itor": 2216,
      "policy": 2217,
      "until": 2218,
      "local": 2219,
      "hearts": 2220,
      "wa": 2221,
      "ividual": 2222,
      "mus": 2223,
      "members": 2224,
      "mode": 2225,
      "around": 2226,
      "tor": 2227,
      "cred": 2228,
      "ians": 2229,
      "cogn": 2230,
      "ery": 2231,
      "ling": 2232,
      "Commission": 2233,
      "'%": 2234,
      "adesh": 2235,
      "operation": 2236,
      "Some": 2237,
      "press": 2238,
      "deeds": 2239,
      "institut": 2240,
      "pot": 2241,
      "mil": 2242,
      "mail": 2243,
      "hind": 2244,
      "cil": 2245,
      "bor": 2246,
      "industri": 2247,
      "five": 2248,
      "using": 2249,
      "fav": 2250,
      "common": 2251,
      "Cour": 2252,
      "claim": 2253,
      "sector": 2254,
      "whether": 2255,
      "Dr": 2256,
      "send": 2257,
      "belong": 2258,
      "ded": 2259,
      "orig": 2260,
      "posed": 2261,
      "society": 2262,
      "partment": 2263,
      "aled": 2264,
      "Col": 2265,
      "14": 2266,
      "wo": 2267,
      "ories": 2268,
      "firm": 2269,
      "DI": 2270,
      "Nor": 2271,
      "idence": 2272,
      "ried": 2273,
      "always": 2274,
      "occas": 2275,
      "ern": 2276,
      "atic": 2277,
      "Gener": 2278,
      "ng": 2279,
      "curity": 2280,
      "lection": 2281,
      "whose": 2282,
      "rul": 2283,
      "detail": 2284,
      "opy": 2285,
      "believed": 2286,
      "pan": 2287,
      "tra": 2288,
      "States": 2289,
      "SA": 2290,
      "jee": 2291,
      "individual": 2292,
      "meas": 2293,
      "along": 2294,
      "beg": 2295,
      "nothing": 2296,
      "home": 2297,
      "PRES": 2298,
      "ats": 2299,
      "Reg": 2300,
      "hammad": 2301,
      "plement": 2302,
      "held": 2303,
      "termin": 2304,
      "lab": 2305,
      "mill": 2306,
      "ering": 2307,
      "create": 2308,
      "therefore": 2309,
      "50": 2310,
      "bey": 2311,
      "vironment": 2312,
      "spirit": 2313,
      "ME": 2314,
      "political": 2315,
      "With": 2316,
      "ji": 2317,
      "yet": 2318,
      "ron": 2319,
      "mean": 2320,
      "friend": 2321,
      "course": 2322,
      "Ap": 2323,
      "wise": 2324,
      "feel": 2325,
      "contribut": 2326,
      "asses": 2327,
      "ards": 2328,
      "mult": 2329,
      "Beng": 2330,
      "later": 2331,
      "thee": 2332,
      "Bank": 2333,
      "fel": 2334,
      "folder": 2335,
      "flu": 2336,
      "religion": 2337,
      "school": 2338,
      "How": 2339,
      "ges": 2340,
      "Show": 2341,
      "witness": 2342,
      "uro": 2343,
      "ems": 2344,
      "further": 2345,
      "lot": 2346,
      "force": 2347,
      "cir": 2348,
      "total": 2349,
      "sever": 2350,
      "growth": 2351,
      "Gandhi": 2352,
      "research": 2353,
      "ours": 2354,
      "UR": 2355,
      "error": 2356,
      "Not": 2357,
      "ministr": 2358,
      "pati": 2359,
      "cit": 2360,
      "tom": 2361,
      "ife": 2362,
      "anim": 2363,
      "British": 2364,
      "ax": 2365,
      "plant": 2366,
      "peace": 2367,
      "control": 2368,
      "portun": 2369,
      "cience": 2370,
      "ga": 2371,
      "Muhammad": 2372,
      "cing": 2373,
      "vo": 2374,
      "Offic": 2375,
      "OR": 2376,
      "taking": 2377,
      "question": 2378,
      "received": 2379,
      "ideo": 2380,
      "Please": 2381,
      "Ro": 2382,
      "Commit": 2383,
      "Hindi": 2384,
      "nature": 2385,
      "Sha": 2386,
      "record": 2387,
      "image": 2388,
      "cret": 2389,
      "technology": 2390,
      "became": 2391,
      "atever": 2392,
      "coming": 2393,
      "gain": 2394,
      "atch": 2395,
      "Coun": 2396,
      "function": 2397,
      "sis": 2398,
      "docu": 2399,
      "verse": 2400,
      "since": 2401,
      "ush": 2402,
      "mother": 2403,
      "After": 2404,
      "ources": 2405,
      "priv": 2406,
      "THE": 2407,
      "mater": 2408,
      "Isra": 2409,
      "six": 2410,
      "fill": 2411,
      "itional": 2412,
      "leave": 2413,
      "English": 2414,
      "sat": 2415,
      "opportun": 2416,
      "crit": 2417,
      "link": 2418,
      "Messenger": 2419,
      "strong": 2420,
      "access": 2421,
      "fig": 2422,
      "next": 2423,
      "went": 2424,
      "Deve": 2425,
      "Most": 2426,
      "forms": 2427,
      "IDENT": 2428,
      "glo": 2429,
      "tell": 2430,
      "ream": 2431,
      "13": 2432,
      "ences": 2433,
      "herjee": 2434,
      "works": 2435,
      "road": 2436,
      "previous": 2437,
      "forth": 2438,
      "step": 2439,
      "required": 2440,
      "ened": 2441,
      "ently": 2442,
      "bt": 2443,
      "hon": 2444,
      "pointed": 2445,
      "outh": 2446,
      "knows": 2447,
      "reward": 2448,
      "Prime": 2449,
      "short": 2450,
      "wel": 2451,
      "PRESIDENT": 2452,
      "ban": 2453,
      "augh": 2454,
      "brother": 2455,
      "recogn": 2456,
      "Sy": 2457,
      "ute": 2458,
      "share": 2459,
      "selected": 2460,
      "ivil": 2461,
      "money": 2462,
      "foreign": 2463,
      "lied": 2464,
      "decl": 2465,
      "earch": 2466,
      "tered": 2467,
      "speak": 2468,
      "occasion": 2469,
      "hands": 2470,
      "industry": 2471,
      "17": 2472,
      "artic": 2473,
      "ons": 2474,
      "pers": 2475,
      "sib": 2476,
      "assess": 2477,
      "production": 2478,
      "several": 2479,
      "Hindu": 2480,
      "Singh": 2481,
      "quality": 2482,
      "aring": 2483,
      "25": 2484,
      "aid": 2485,
      "either": 2486,
      "task": 2487,
      "Develop": 2488,
      "thought": 2489,
      "chan": 2490,
      "descri": 2491,
      "application": 2492,
      "Ministry": 2493,
      "uary": 2494,
      "ier": 2495,
      "working": 2496,
      "activities": 2497,
      "certainly": 2498,
      "don": 2499,
      "Prov": 2500,
      "anab": 2501,
      "thod": 2502,
      "aster": 2503,
      "Parliament": 2504,
      "graph": 2505,
      "young": 2506,
      "role": 2507,
      "trust": 2508,
      "elect": 2509,
      "authority": 2510,
      "close": 2511,
      "ival": 2512,
      "fault": 2513,
      "ama": 2514,
      "anything": 2515,
      "University": 2516,
      "Per": 2517,
      "contact": 2518,
      "mag": 2519,
      "Moses": 2520,
      "character": 2521,
      "idance": 2522,
      "agree": 2523,
      "paren": 2524,
      "progress": 2525,
      "urely": 2526,
      "ises": 2527,
      "ively": 2528,
      "fire": 2529,
      "ension": 2530,
      "itself": 2531,
      "situ": 2532,
      "visit": 2533,
      "igher": 2534,
      "Cont": 2535,
      "sl": 2536,
      "continu": 2537,
      "fut": 2538,
      "paid": 2539,
      "deal": 2540,
      "196": 2541,
      "Cong": 2542,
      "kill": 2543,
      "example": 2544,
      "Here": 2545,
      "ulture": 2546,
      "big": 2547,
      "ficult": 2548,
      "udd": 2549,
      "II": 2550,
      "gar": 2551,
      "sal": 2552,
      "oh": 2553,
      "necessary": 2554,
      "198": 2555,
      "ran": 2556,
      "city": 2557,
      "poet": 2558,
      "tific": 2559,
      "medi": 2560,
      "remo": 2561,
      "oud": 2562,
      "stat": 2563,
      "experi": 2564,
      "represent": 2565,
      "farm": 2566,
      "ably": 2567,
      "acc": 2568,
      "By": 2569,
      "charge": 2570,
      "material": 2571,
      "history": 2572,
      "sequ": 2573,
      "soon": 2574,
      "provisions": 2575,
      "difficult": 2576,
      "ION": 2577,
      "agric": 2578,
      "ctor": 2579,
      "established": 2580,
      "financial": 2581,
      "ross": 2582,
      "Direct": 2583,
      "property": 2584,
      "akh": 2585,
      "related": 2586,
      "Pol": 2587,
      "Now": 2588,
      "poses": 2589,
      "General": 2590,
      "report": 2591,
      "mir": 2592,
      "mber": 2593,
      "bsite": 2594,
      "une": 2595,
      "save": 2596,
      "Fin": 2597,
      "thus": 2598,
      "purpose": 2599,
      "Pradesh": 2600,
      "mic": 2601,
      "grant": 2602,
      "fast": 2603,
      "therein": 2604,
      "Court": 2605,
      "enjo": 2606,
      "hath": 2607,
      "isl": 2608,
      "ending": 2609,
      "High": 2610,
      "sor": 2611,
      "Des": 2612,
      "cast": 2613,
      "nov": 2614,
      "teous": 2615,
      "Serv": 2616,
      "changes": 2617,
      "bur": 2618,
      "soul": 2619,
      "compan": 2620,
      "scheme": 2621,
      "Development": 2622,
      "ude": 2623,
      "draw": 2624,
      "meeting": 2625,
      "doing": 2626,
      "idd": 2627,
      "behind": 2628,
      "phet": 2629,
      "ped": 2630,
      "ilar": 2631,
      "aught": 2632,
      "started": 2633,
      "umb": 2634,
      "Euro": 2635,
      "entire": 2636,
      "Know": 2637,
      "Sat": 2638,
      "security": 2639,
      "court": 2640,
      "written": 2641,
      "Open": 2642,
      "files": 2643,
      "nic": 2644,
      "Could": 2645,
      "uni": 2646,
      "mercy": 2647,
      "asked": 2648,
      "Mar": 2649,
      "pread": 2650,
      "gri": 2651,
      "Us": 2652,
      "future": 2653,
      "specified": 2654,
      "referred": 2655,
      "Thus": 2656,
      "def": 2657,
      "personal": 2658,
      "aud": 2659,
      "demand": 2660,
      "yment": 2661,
      "constru": 2662,
      "soever": 2663,
      "acity": 2664,
      "male": 2665,
      "forward": 2666,
      "greater": 2667,
      "expect": 2668,
      "Congress": 2669,
      "hor": 2670,
      "imum": 2671,
      "Cl": 2672,
      "logical": 2673,
      "implement": 2674,
      "ners": 2675,
      "outs": 2676,
      "once": 2677,
      "living": 2678,
      "aware": 2679,
      "revealed": 2680,
      "rain": 2681,
      "treat": 2682,
      "aves": 2683,
      "stitute": 2684,
      "community": 2685,
      "Europe": 2686,
      "volution": 2687,
      "whatever": 2688,
      "higher": 2689,
      "institutions": 2690,
      "Em": 2691,
      "parts": 2692,
      "RRB": 2693,
      "ordin": 2694,
      "House": 2695,
      "List": 2696,
      "aries": 2697,
      "distr": 2698,
      "rich": 2699,
      "engers": 2700,
      "lled": 2701,
      "formed": 2702,
      "vision": 2703,
      "ilt": 2704,
      "guidance": 2705,
      "students": 2706,
      "Li": 2707,
      "initi": 2708,
      "guide": 2709,
      "ficient": 2710,
      "modern": 2711,
      "fight": 2712,
      "standing": 2713,
      "mach": 2714,
      "dro": 2715,
      "197": 2716,
      "expres": 2717,
      "abha": 2718,
      "seek": 2719,
      "mitted": 2720,
      "hood": 2721,
      "Let": 2722,
      "ease": 2723,
      "according": 2724,
      "rele": 2725,
      "deli": 2726,
      "Union": 2727,
      "ek": 2728,
      "uses": 2729,
      "INDI": 2730,
      "righteous": 2731,
      "months": 2732,
      "Cal": 2733,
      "relation": 2734,
      "website": 2735,
      "Qur": 2736,
      "Department": 2737,
      "posit": 2738,
      "iction": 2739,
      "Muslims": 2740,
      "told": 2741,
      "separ": 2742,
      "appointed": 2743,
      "194": 2744,
      "Surely": 2745,
      "mocr": 2746,
      "round": 2747,
      "Verily": 2748,
      "condu": 2749,
      "ST": 2750,
      "Rep": 2751,
      "ita": 2752,
      "irth": 2753,
      "itation": 2754,
      "building": 2755,
      "lier": 2756,
      "tray": 2757,
      "story": 2758,
      "prove": 2759,
      "defin": 2760,
      "turned": 2761,
      "Er": 2762,
      "goods": 2763,
      "24": 2764,
      "till": 2765,
      "past": 2766,
      "ountain": 2767,
      "wealth": 2768,
      "Committee": 2769,
      "verily": 2770,
      "Israel": 2771,
      "loss": 2772,
      "result": 2773,
      "):": 2774,
      "remember": 2775,
      "eyes": 2776,
      "atives": 2777,
      "environment": 2778,
      "valid": 2779,
      "computer": 2780,
      "ouch": 2781,
      "cially": 2782,
      "forts": 2783,
      "Sup": 2784,
      "nder": 2785,
      "host": 2786,
      "acqu": 2787,
      "htt": 2788,
      "sen": 2789,
      "vari": 2790,
      "integr": 2791,
      "destro": 2792,
      "band": 2793,
      "squ": 2794,
      "cious": 2795,
      "Mad": 2796,
      "Govern": 2797,
      "LRB": 2798,
      "Tech": 2799,
      "Ass": 2800,
      "invol": 2801,
      "reme": 2802,
      "office": 2803,
      "istan": 2804,
      "ills": 2805,
      "fru": 2806,
      "century": 2807,
      "Cor": 2808,
      "Constitution": 2809,
      "reedom": 2810,
      "aut": 2811,
      "ires": 2812,
      "rish": 2813,
      "sof": 2814,
      "grad": 2815,
      "gives": 2816,
      "design": 2817,
      "ieve": 2818,
      "method": 2819,
      "Mr": 2820,
      "issue": 2821,
      "why": 2822,
      "poor": 2823,
      "prep": 2824,
      "mention": 2825,
      "allowed": 2826,
      "blood": 2827,
      "saying": 2828,
      "problem": 2829,
      "particip": 2830,
      "sun": 2831,
      "idered": 2832,
      "server": 2833,
      "books": 2834,
      "asse": 2835,
      "Cre": 2836,
      "enc": 2837,
      "however": 2838,
      "ultural": 2839,
      "Bengal": 2840,
      "party": 2841,
      "basis": 2842,
      "Set": 2843,
      "trade": 2844,
      "deep": 2845,
      "aste": 2846,
      "Chr": 2847,
      "considered": 2848,
      "Select": 2849,
      "check": 2850,
      "Are": 2851,
      "administr": 2852,
      "persons": 2853,
      "sense": 2854,
      "tree": 2855,
      "Where": 2856,
      "needs": 2857,
      "problems": 2858,
      "energy": 2859,
      "publ": 2860,
      "hab": 2861,
      "purposes": 2862,
      "ina": 2863,
      "rup": 2864,
      "vert": 2865,
      "rect": 2866,
      "Mon": 2867,
      "pleas": 2868,
      "fal": 2869,
      "ret": 2870,
      "movement": 2871,
      "jour": 2872,
      "wide": 2873,
      "Fire": 2874,
      "ken": 2875,
      "write": 2876,
      "ara": 2877,
      "terror": 2878,
      "viol": 2879,
      "scient": 2880,
      "manner": 2881,
      "proved": 2882,
      "discus": 2883,
      "phys": 2884,
      "single": 2885,
      "Council": 2886,
      "Su": 2887,
      "ication": 2888,
      "approach": 2889,
      "sac": 2890,
      "often": 2891,
      "?\"": 2892,
      "tificate": 2893,
      "princi": 2894,
      "ane": 2895,
      "stri": 2896,
      "begin": 2897,
      "TO": 2898,
      "passed": 2899,
      "spread": 2900,
      "itude": 2901,
      "assist": 2902,
      "natural": 2903,
      "citiz": 2904,
      "none": 2905,
      "religious": 2906,
      "However": 2907,
      "terms": 2908,
      "room": 2909,
      "AS": 2910,
      "international": 2911,
      "reat": 2912,
      "cul": 2913,
      "village": 2914,
      "possess": 2915,
      "ured": 2916,
      "Arab": 2917,
      "Information": 2918,
      "lines": 2919,
      "display": 2920,
      "ince": 2921,
      "vent": 2922,
      "ero": 2923,
      "rad": 2924,
      "front": 2925,
      "general": 2926,
      "http": 2927,
      "ister": 2928,
      "fix": 2929,
      "ouses": 2930,
      "ategory": 2931,
      "ww": 2932,
      "Prophet": 2933,
      "carry": 2934,
      "Muk": 2935,
      "doers": 2936,
      "network": 2937,
      "195": 2938,
      "assessee": 2939,
      "ule": 2940,
      "America": 2941,
      "May": 2942,
      "messages": 2943,
      "management": 2944,
      "redu": 2945,
      "counts": 2946,
      "ging": 2947,
      "makes": 2948,
      "issued": 2949,
      "sound": 2950,
      "payment": 2951,
      "ousand": 2952,
      "civil": 2953,
      "INDIA": 2954,
      "version": 2955,
      "hara": 2956,
      "alone": 2957,
      "size": 2958,
      "Ed": 2959,
      "imp": 2960,
      "ior": 2961,
      "usu": 2962,
      "occur": 2963,
      "assessment": 2964,
      "maintain": 2965,
      "break": 2966,
      "freedom": 2967,
      "guard": 2968,
      "increase": 2969,
      "UN": 2970,
      "CO": 2971,
      "early": 2972,
      "everything": 2973,
      "Chand": 2974,
      "ani": 2975,
      "conditions": 2976,
      "region": 2977,
      "sil": 2978,
      "Public": 2979,
      "benefit": 2980,
      "profess": 2981,
      "gard": 2982,
      "istic": 2983,
      "user": 2984,
      "'.": 2985,
      "san": 2986,
      "imes": 2987,
      "really": 2988,
      "stant": 2989,
      "sec": 2990,
      "efforts": 2991,
      "intel": 2992,
      "File": 2993,
      "NA": 2994,
      "Mem": 2995,
      "Such": 2996,
      "pes": 2997,
      "seven": 2998,
      "developed": 2999,
      "bel": 3000,
      "neither": 3001,
      "least": 3002,
      "million": 3003,
      "institution": 3004,
      "matters": 3005,
      "reject": 3006,
      "culture": 3007,
      "respond": 3008,
      "duty": 3009,
      "lock": 3010,
      "hu": 3011,
      "cove": 3012,
      "idden": 3013,
      "Bhar": 3014,
      "creation": 3015,
      "credit": 3016,
      "global": 3017,
      "ison": 3018,
      "space": 3019,
      "phas": 3020,
      "1st": 3021,
      "23": 3022,
      "Whether": 3023,
      "determin": 3024,
      "wal": 3025,
      "ather": 3026,
      "source": 3027,
      "river": 3028,
      "US": 3029,
      "AP": 3030,
      "stay": 3031,
      "Even": 3032,
      "mankind": 3033,
      "External": 3034,
      "vere": 3035,
      "Kar": 3036,
      "thousand": 3037,
      "deny": 3038,
      "ler": 3039,
      "chall": 3040,
      "rodu": 3041,
      "industrial": 3042,
      "atory": 3043,
      "doubt": 3044,
      "training": 3045,
      "eat": 3046,
      "followed": 3047,
      "Tri": 3048,
      "dead": 3049,
      "woman": 3050,
      "birth": 3051,
      "transfer": 3052,
      "capacity": 3053,
      "fras": 3054,
      "town": 3055,
      "spo": 3056,
      "frastru": 3057,
      "video": 3058,
      "wife": 3059,
      "justice": 3060,
      "gest": 3061,
      "ze": 3062,
      "independ": 3063,
      "ilo": 3064,
      "tings": 3065,
      "dy": 3066,
      "ties": 3067,
      "CH": 3068,
      "26": 3069,
      "attle": 3070,
      "Qu": 3071,
      "angels": 3072,
      "temple": 3073,
      "itable": 3074,
      "wers": 3075,
      "Cannot": 3076,
      "ecut": 3077,
      "sit": 3078,
      "writing": 3079,
      "attach": 3080,
      "kar": 3081,
      "swe": 3082,
      "People": 3083,
      "Error": 3084,
      "opens": 3085,
      "Have": 3086,
      "Jan": 3087,
      "sea": 3088,
      "bless": 3089,
      "event": 3090,
      "lat": 3091,
      "saw": 3092,
      "trave": 3093,
      "ni": 3094,
      "mun": 3095,
      "adop": 3096,
      "dire": 3097,
      "emed": 3098,
      "outside": 3099,
      "literature": 3100,
      "mountain": 3101,
      "lete": 3102,
      "supp": 3103,
      "rights": 3104,
      "hope": 3105,
      "Name": 3106,
      "democr": 3107,
      "achieve": 3108,
      "],": 3109,
      "belief": 3110,
      "provision": 3111,
      "bound": 3112,
      "population": 3113,
      "harm": 3114,
      "rs": 3115,
      "promise": 3116,
      "wait": 3117,
      "va": 3118,
      "issues": 3119,
      "Te": 3120,
      "placed": 3121,
      "lives": 3122,
      "pra": 3123,
      "drink": 3124,
      "asing": 3125,
      "sust": 3126,
      "condition": 3127,
      "lling": 3128,
      "serve": 3129,
      "proceed": 3130,
      "disease": 3131,
      "ram": 3132,
      "nel": 3133,
      "study": 3134,
      "rule": 3135,
      "cases": 3136,
      "Div": 3137,
      "board": 3138,
      "programme": 3139,
      "sty": 3140,
      "inc": 3141,
      "vey": 3142,
      "usion": 3143,
      "raised": 3144,
      "covered": 3145,
      "kept": 3146,
      "disbelieve": 3147,
      "arm": 3148,
      "install": 3149,
      "judge": 3150,
      "Dev": 3151,
      "Part": 3152,
      "ote": 3153,
      "Apr": 3154,
      "similar": 3155,
      "Mal": 3156,
      "connect": 3157,
      "lost": 3158,
      "resources": 3159,
      "ening": 3160,
      "chol": 3161,
      "price": 3162,
      "document": 3163,
      "Afr": 3164,
      "iddle": 3165,
      "cum": 3166,
      "ung": 3167,
      "third": 3168,
      "innov": 3169,
      "official": 3170,
      "Bha": 3171,
      "immedi": 3172,
      "fare": 3173,
      "Mukherjee": 3174,
      "ansk": 3175,
      "almost": 3176,
      "active": 3177,
      "Sw": 3178,
      "auto": 3179,
      "include": 3180,
      "spect": 3181,
      "frastructure": 3182,
      "receive": 3183,
      "rap": 3184,
      "petition": 3185,
      "Section": 3186,
      "Trans": 3187,
      "earlier": 3188,
      "continue": 3189,
      "revel": 3190,
      "super": 3191,
      "leader": 3192,
      "Sur": 3193,
      "investment": 3194,
      "sibility": 3195,
      "sugg": 3196,
      "Project": 3197,
      "100": 3198,
      "ets": 3199,
      "bear": 3200,
      "Why": 3201,
      "undred": 3202,
      "otion": 3203,
      "legal": 3204,
      "resol": 3205,
      "sw": 3206,
      "Sam": 3207,
      "erve": 3208,
      "atures": 3209,
      "Merc": 3210,
      "conv": 3211,
      "says": 3212,
      "torment": 3213,
      "ufact": 3214,
      "estern": 3215,
      "ns": 3216,
      "structure": 3217,
      "April": 3218,
      "lakh": 3219,
      "reli": 3220,
      "signific": 3221,
      "experience": 3222,
      "affect": 3223,
      "emer": 3224,
      "Mahar": 3225,
      "Merciful": 3226,
      "22": 3227,
      "From": 3228,
      "across": 3229,
      "products": 3230,
      "anskrit": 3231,
      "cup": 3232,
      "strength": 3233,
      "eness": 3234,
      "ission": 3235,
      "Sabha": 3236,
      "ols": 3237,
      "conscious": 3238,
      "enough": 3239,
      "uration": 3240,
      "ators": 3241,
      "science": 3242,
      "guided": 3243,
      "Pur": 3244,
      "//": 3245,
      "://": 3246,
      "regular": 3247,
      "omet": 3248,
      "Institute": 3249,
      "partner": 3250,
      "news": 3251,
      "Pal": 3252,
      "West": 3253,
      "district": 3254,
      "box": 3255,
      "page": 3256,
      "require": 3257,
      "ables": 3258,
      "recent": 3259,
      "enem": 3260,
      "urre": 3261,
      "Cer": 3262,
      "protect": 3263,
      "ring": 3264,
      "duc": 3265,
      "laun": 3266,
      "prescri": 3267,
      "happy": 3268,
      "states": 3269,
      "produce": 3270,
      "private": 3271,
      "Republic": 3272,
      "job": 3273,
      "Budd": 3274,
      "htm": 3275,
      "ailed": 3276,
      "projects": 3277,
      "lying": 3278,
      "Pun": 3279,
      "farmers": 3280,
      "satis": 3281,
      "Board": 3282,
      "stone": 3283,
      "Har": 3284,
      "Med": 3285,
      "release": 3286,
      "transl": 3287,
      "os": 3288,
      "ican": 3289,
      "hundred": 3290,
      "espe": 3291,
      "desire": 3292,
      "Pers": 3293,
      "disbelievers": 3294,
      "stor": 3295,
      "United": 3296,
      "pair": 3297,
      "influ": 3298,
      "LE": 3299,
      "“”": 3300,
      "endar": 3301,
      "places": 3302,
      "introdu": 3303,
      "below": 3304,
      "RA": 3305,
      "tour": 3306,
      "astray": 3307,
      "Bh": 3308,
      "burn": 3309,
      "ensive": 3310,
      "28": 3311,
      "feed": 3312,
      "Jud": 3313,
      "omb": 3314,
      "cele": 3315,
      "East": 3316,
      "South": 3317,
      "ager": 3318,
      "weak": 3319,
      "DE": 3320,
      "failed": 3321,
      "carried": 3322,
      "decided": 3323,
      "ney": 3324,
      "agar": 3325,
      "observ": 3326,
      "rural": 3327,
      "haps": 3328,
      "attack": 3329,
      "appear": 3330,
      "Ph": 3331,
      "false": 3332,
      "ests": 3333,
      "exchange": 3334,
      "World": 3335,
      "Fe": 3336,
      "Asia": 3337,
      "MS": 3338,
      "Their": 3339,
      "mut": 3340,
      "tware": 3341,
      "distribut": 3342,
      "Ak": 3343,
      "prepared": 3344,
      "built": 3345,
      "Sanskrit": 3346,
      "dig": 3347,
      "Tru": 3348,
      "provides": 3349,
      "music": 3350,
      "relating": 3351,
      "ada": 3352,
      "portion": 3353,
      "Every": 3354,
      "Brah": 3355,
      "original": 3356,
      "RE": 3357,
      "Bi": 3358,
      "anda": 3359,
      "prayer": 3360,
      "ris": 3361,
      "iving": 3362,
      "economy": 3363,
      "King": 3364,
      "Sche": 3365,
      "decision": 3366,
      "exper": 3367,
      "meaning": 3368,
      "Use": 3369,
      "Gur": 3370,
      "copy": 3371,
      "Income": 3372,
      "behalf": 3373,
      "Leg": 3374,
      "Chief": 3375,
      "wall": 3376,
      "manufact": 3377,
      "dark": 3378,
      "actually": 3379,
      "Fir": 3380,
      "improve": 3381,
      "groups": 3382,
      "popular": 3383,
      "seed": 3384,
      "jar": 3385,
      "strengthen": 3386,
      "ensure": 3387,
      "Educ": 3388,
      "sper": 3389,
      "ping": 3390,
      "March": 3391,
      "card": 3392,
      "favour": 3393,
      "Technology": 3394,
      "tele": 3395,
      "leaders": 3396,
      "iment": 3397,
      "manif": 3398,
      "iture": 3399,
      "speech": 3400,
      "Je": 3401,
      "employe": 3402,
      "vest": 3403,
      "accord": 3404,
      "instrument": 3405,
      "27": 3406,
      "Fil": 3407,
      "normal": 3408,
      "Che": 3409,
      "whoever": 3410,
      "hoto": 3411,
      "Sp": 3412,
      "Up": 3413,
      "ware": 3414,
      "situation": 3415,
      "published": 3416,
      "Pranab": 3417,
      "evol": 3418,
      "especially": 3419,
      "dam": 3420,
      "chief": 3421,
      "inion": 3422,
      "ift": 3423,
      "inste": 3424,
      "easy": 3425,
      "gir": 3426,
      "jab": 3427,
      "unbelievers": 3428,
      "lower": 3429,
      "central": 3430,
      "AND": 3431,
      "crore": 3432,
      "wid": 3433,
      "ivity": 3434,
      "Mod": 3435,
      "takes": 3436,
      "estic": 3437,
      "relations": 3438,
      "besides": 3439,
      "physical": 3440,
      "fairs": 3441,
      "spr": 3442,
      "creen": 3443,
      "die": 3444,
      "fered": 3445,
      "rive": 3446,
      "aya": 3447,
      "essential": 3448,
      "friends": 3449,
      "Child": 3450,
      "indic": 3451,
      "learn": 3452,
      "values": 3453,
      "ti": 3454,
      "ago": 3455,
      "Indust": 3456,
      "brary": 3457,
      "aran": 3458,
      "anal": 3459,
      "clean": 3460,
      "concerned": 3461,
      "rules": 3462,
      "wro": 3463,
      "accepted": 3464,
      "sens": 3465,
      "rec": 3466,
      "Ut": 3467,
      "suggest": 3468,
      "stage": 3469,
      "iloso": 3470,
      "lic": 3471,
      "stra": 3472,
      "univers": 3473,
      "preci": 3474,
      "suffer": 3475,
      "opportunity": 3476,
      "Bal": 3477,
      "cam": 3478,
      "born": 3479,
      "sions": 3480,
      "celebr": 3481,
      "fest": 3482,
      ".,": 3483,
      "note": 3484,
      "encour": 3485,
      "letter": 3486,
      "bad": 3487,
      "gone": 3488,
      "prim": 3489,
      "disput": 3490,
      "specific": 3491,
      "2014": 3492,
      "fold": 3493,
      "achi": 3494,
      "urrection": 3495,
      "International": 3496,
      "providing": 3497,
      "ered": 3498,
      "agreement": 3499,
      "ony": 3500,
      "pture": 3501,
      "apply": 3502,
      "wind": 3503,
      "yal": 3504,
      "appoint": 3505,
      "forest": 3506,
      "details": 3507,
      "During": 3508,
      "patient": 3509,
      "wrote": 3510,
      "names": 3511,
      "bird": 3512,
      "itary": 3513,
      "evidence": 3514,
      "caused": 3515,
      "rivers": 3516,
      "Kash": 3517,
      "Category": 3518,
      "aging": 3519,
      "reached": 3520,
      "Sign": 3521,
      "conce": 3522,
      "color": 3523,
      "tempt": 3524,
      "60": 3525,
      "increased": 3526,
      "Service": 3527,
      "Under": 3528,
      "facilities": 3529,
      "\".": 3530,
      "plus": 3531,
      "CC": 3532,
      "folk": 3533,
      "status": 3534,
      "lie": 3535,
      "resh": 3536,
      "eight": 3537,
      "becomes": 3538,
      "While": 3539,
      "cultural": 3540,
      "ender": 3541,
      "dered": 3542,
      "prescribed": 3543,
      "hus": 3544,
      "abled": 3545,
      "planation": 3546,
      "Net": 3547,
      "gment": 3548,
      "request": 3549,
      "instead": 3550,
      "Hell": 3551,
      "thereof": 3552,
      "answer": 3553,
      "\"%": 3554,
      "oil": 3555,
      "ava": 3556,
      "talk": 3557,
      "employment": 3558,
      "Krish": 3559,
      "infrastructure": 3560,
      "cto": 3561,
      "DA": 3562,
      "obtain": 3563,
      "cry": 3564,
      "ert": 3565,
      "morning": 3566,
      "Agr": 3567,
      "importance": 3568,
      "ene": 3569,
      "ATION": 3570,
      "Program": 3571,
      "Hereafter": 3572,
      "began": 3573,
      "yourselves": 3574,
      "Save": 3575,
      "unless": 3576,
      "aff": 3577,
      "conduct": 3578,
      "bill": 3579,
      "aughter": 3580,
      "percent": 3581,
      "Sar": 3582,
      "bow": 3583,
      "fection": 3584,
      "corpor": 3585,
      "tempor": 3586,
      "IP": 3587,
      "neg": 3588,
      "programmes": 3589,
      "ull": 3590,
      "expend": 3591,
      "explain": 3592,
      "sky": 3593,
      "mere": 3594,
      "dwell": 3595,
      "Christ": 3596,
      "Val": 3597,
      "belongs": 3598,
      "rather": 3599,
      "measure": 3600,
      "ley": 3601,
      "comb": 3602,
      "responsible": 3603,
      "remind": 3604,
      "Pak": 3605,
      "pi": 3606,
      "Commissioner": 3607,
      "mbly": 3608,
      "Officer": 3609,
      "phy": 3610,
      "Cur": 3611,
      "ining": 3612,
      "gets": 3613,
      "CT": 3614,
      "tran": 3615,
      "Ge": 3616,
      "beyond": 3617,
      "secret": 3618,
      "aving": 3619,
      "multip": 3620,
      "phone": 3621,
      "ships": 3622,
      "Africa": 3623,
      "dedu": 3624,
      "iver": 3625,
      ".)": 3626,
      "prevent": 3627,
      "Governor": 3628,
      "flo": 3629,
      "relev": 3630,
      "aver": 3631,
      "teen": 3632,
      "felt": 3633,
      "View": 3634,
      "Director": 3635,
      "ili": 3636,
      "song": 3637,
      "fif": 3638,
      "shown": 3639,
      "acts": 3640,
      "North": 3641,
      "Other": 3642,
      "chast": 3643,
      "Jo": 3644,
      "device": 3645,
      "grace": 3646,
      "idea": 3647,
      "powers": 3648,
      "aka": 3649,
      "heard": 3650,
      "21": 3651,
      "ously": 3652,
      "languages": 3653,
      "Fo": 3654,
      "origin": 3655,
      "lands": 3656,
      "returned": 3657,
      "Bar": 3658,
      "accounts": 3659,
      "activity": 3660,
      "understanding": 3661,
      "itive": 3662,
      "forb": 3663,
      "Prof": 3664,
      "prior": 3665,
      "Gujar": 3666,
      "AD": 3667,
      "obey": 3668,
      "ancient": 3669,
      "Speak": 3670,
      "40": 3671,
      "govern": 3672,
      "Education": 3673,
      "tit": 3674,
      "goes": 3675,
      "193": 3676,
      "histor": 3677,
      "rown": 3678,
      "hur": 3679,
      "scale": 3680,
      "Quran": 3681,
      ".'": 3682,
      "heaven": 3683,
      "schol": 3684,
      "deb": 3685,
      "enty": 3686,
      "Plan": 3687,
      "branch": 3688,
      "rug": 3689,
      "Enter": 3690,
      "effective": 3691,
      "figure": 3692,
      "restr": 3693,
      "iva": 3694,
      "ries": 3695,
      ");": 3696,
      "ases": 3697,
      "SE": 3698,
      "bio": 3699,
      "loan": 3700,
      "ggle": 3701,
      "Comp": 3702,
      "potential": 3703,
      "pie": 3704,
      "setting": 3705,
      "Failed": 3706,
      "mental": 3707,
      "Secret": 3708,
      "added": 3709,
      "manifest": 3710,
      "War": 3711,
      "offer": 3712,
      "Centre": 3713,
      "CD": 3714,
      "exceed": 3715,
      "option": 3716,
      "boy": 3717,
      "content": 3718,
      "hom": 3719,
      "houses": 3720,
      "parents": 3721,
      "gam": 3722,
      "abad": 3723,
      "mighty": 3724,
      "former": 3725,
      "correct": 3726,
      "film": 3727,
      "wood": 3728,
      "Research": 3729,
      "80": 3730,
      "Tod": 3731,
      "Tam": 3732,
      "getting": 3733,
      "supported": 3734,
      "Wise": 3735,
      "style": 3736,
      "PM": 3737,
      "argu": 3738,
      "spiritual": 3739,
      "treatment": 3740,
      "beginning": 3741,
      "decre": 3742,
      "quite": 3743,
      "connection": 3744,
      "limit": 3745,
      "article": 3746,
      "existence": 3747,
      "steps": 3748,
      "servants": 3749,
      "anti": 3750,
      "filled": 3751,
      "proof": 3752,
      "contract": 3753,
      "Many": 3754,
      "ming": 3755,
      "2015": 3756,
      "Grou": 3757,
      "unit": 3758,
      "wanted": 3759,
      "imate": 3760,
      "existing": 3761,
      "Air": 3762,
      "Gang": 3763,
      "else": 3764,
      "Scheme": 3765,
      "philoso": 3766,
      "Therefore": 3767,
      "Out": 3768,
      "Evolution": 3769,
      "Move": 3770,
      "fish": 3771,
      "Phara": 3772,
      "simple": 3773,
      "Sep": 3774,
      "mom": 3775,
      "unjust": 3776,
      "avo": 3777,
      "ights": 3778,
      "mass": 3779,
      "Ben": 3780,
      "assu": 3781,
      "eth": 3782,
      "tu": 3783,
      "riage": 3784,
      "stream": 3785,
      "Pharaoh": 3786,
      "Will": 3787,
      "Pakistan": 3788,
      "Search": 3789,
      "safe": 3790,
      "citizens": 3791,
      "grat": 3792,
      "fixed": 3793,
      "sle": 3794,
      "igation": 3795,
      "ometimes": 3796,
      "asset": 3797,
      "Ko": 3798,
      "notice": 3799,
      "forgiven": 3800,
      "concerning": 3801,
      "Author": 3802,
      "Punjab": 3803,
      "raham": 3804,
      "black": 3805,
      "location": 3806,
      "System": 3807,
      "Gard": 3808,
      "systems": 3809,
      "anger": 3810,
      "Kal": 3811,
      "nal": 3812,
      "default": 3813,
      "herit": 3814,
      "mentioned": 3815,
      "hol": 3816,
      "Sm": 3817,
      "CE": 3818,
      "pts": 3819,
      "usually": 3820,
      "sex": 3821,
      "excell": 3822,
      "produced": 3823,
      "limited": 3824,
      "labor": 3825,
      "etry": 3826,
      "youth": 3827,
      "agricultural": 3828,
      "presented": 3829,
      "changed": 3830,
      "certificate": 3831,
      "generation": 3832,
      "white": 3833,
      "execut": 3834,
      "raise": 3835,
      "Ag": 3836,
      "ades": 3837,
      "anced": 3838,
      "verses": 3839,
      "Chair": 3840,
      "pack": 3841,
      "saf": 3842,
      "ka": 3843,
      "exerc": 3844,
      "nical": 3845,
      "29": 3846,
      "basic": 3847,
      "bi": 3848,
      "commer": 3849,
      "touch": 3850,
      "Jam": 3851,
      "collect": 3852,
      "sufficient": 3853,
      "dated": 3854,
      "hat": 3855,
      "proced": 3856,
      "Ved": 3857,
      "era": 3858,
      "female": 3859,
      "engine": 3860,
      "pursu": 3861,
      "ulated": 3862,
      "beaut": 3863,
      "learning": 3864,
      "pict": 3865,
      "quar": 3866,
      "icts": 3867,
      "sho": 3868,
      "Today": 3869,
      "muk": 3870,
      "cks": 3871,
      "direction": 3872,
      "Dece": 3873,
      "Abraham": 3874,
      "Islamic": 3875,
      "2000": 3876,
      "crim": 3877,
      "bond": 3878,
      "tur": 3879,
      "base": 3880,
      "IR": 3881,
      "significant": 3882,
      "].": 3883,
      "severe": 3884,
      "Off": 3885,
      "parties": 3886,
      "cra": 3887,
      "knew": 3888,
      "week": 3889,
      "thern": 3890,
      "custo": 3891,
      "running": 3892,
      "president": 3893,
      "generally": 3894,
      "Resurrection": 3895,
      "fathers": 3896,
      "addition": 3897,
      "lack": 3898,
      "ancy": 3899,
      "oured": 3900,
      "forces": 3901,
      "plants": 3902,
      "sight": 3903,
      "format": 3904,
      "moon": 3905,
      "continued": 3906,
      "Ob": 3907,
      "connected": 3908,
      "da": 3909,
      "aspect": 3910,
      "ained": 3911,
      "faces": 3912,
      "Sim": 3913,
      "expected": 3914,
      "Copy": 3915,
      "remove": 3916,
      "',": 3917,
      "January": 3918,
      "mi": 3919,
      "regarding": 3920,
      "Corpor": 3921,
      "watch": 3922,
      "liber": 3923,
      "oting": 3924,
      "construction": 3925,
      "statement": 3926,
      "ply": 3927,
      "hosp": 3928,
      "assign": 3929,
      "isement": 3930,
      "Kashmir": 3931,
      "consist": 3932,
      "responsibility": 3933,
      "December": 3934,
      "Ju": 3935,
      "UT": 3936,
      "mob": 3937,
      "novel": 3938,
      "Just": 3939,
      "associated": 3940,
      "ulate": 3941,
      "2018": 3942,
      "ini": 3943,
      "please": 3944,
      "sold": 3945,
      "lif": 3946,
      "wed": 3947,
      "ower": 3948,
      "cross": 3949,
      "destroyed": 3950,
      "Sal": 3951,
      "prosper": 3952,
      "max": 3953,
      "vious": 3954,
      "lege": 3955,
      "ideas": 3956,
      "successful": 3957,
      "istered": 3958,
      "tried": 3959,
      "ED": 3960,
      "practice": 3961,
      "habit": 3962,
      "oted": 3963,
      "rid": 3964,
      "ches": 3965,
      "empt": 3966,
      "appropri": 3967,
      "ING": 3968,
      "immediately": 3969,
      "ilit": 3970,
      "fit": 3971,
      "According": 3972,
      "Mark": 3973,
      "Tax": 3974,
      "Supreme": 3975,
      "relevant": 3976,
      "omen": 3977,
      "Auto": 3978,
      "blind": 3979,
      "2016": 3980,
      "animals": 3981,
      "Ty": 3982,
      "rail": 3983,
      "Any": 3984,
      "Legisl": 3985,
      "IV": 3986,
      "wishes": 3987,
      "final": 3988,
      "sult": 3989,
      "green": 3990,
      "dream": 3991,
      "poly": 3992,
      "painful": 3993,
      "presence": 3994,
      "Char": 3995,
      "ami": 3996,
      "Yet": 3997,
      "Tem": 3998,
      "units": 3999,
      "2013": 4000,
      "American": 4001,
      "strate": 4002,
      "companies": 4003,
      "umbai": 4004,
      "encies": 4005,
      "stances": 4006,
      "purch": 4007,
      "Scri": 4008,
      "spend": 4009,
      "session": 4010,
      "Provided": 4011,
      "Hy": 4012,
      "item": 4013,
      "lose": 4014,
      "Nove": 4015,
      "looking": 4016,
      "banks": 4017,
      "Only": 4018,
      "star": 4019,
      "Fund": 4020,
      "Sa": 4021,
      "Asse": 4022,
      "opportunities": 4023,
      "Octo": 4024,
      "poetry": 4025,
      "anyone": 4026,
      "IL": 4027,
      "famous": 4028,
      "prob": 4029,
      "poll": 4030,
      "October": 4031,
      "traditional": 4032,
      "range": 4033,
      "feet": 4034,
      "Explanation": 4035,
      "mix": 4036,
      "serious": 4037,
      "password": 4038,
      "revelations": 4039,
      "Uttar": 4040,
      "cities": 4041,
      "gold": 4042,
      "attain": 4043,
      "sym": 4044,
      "besto": 4045,
      "forgiveness": 4046,
      "mot": 4047,
      "medical": 4048,
      "particularly": 4049,
      "shop": 4050,
      "explo": 4051,
      "recomm": 4052,
      "motion": 4053,
      "tradition": 4054,
      "beautiful": 4055,
      "team": 4056,
      "Inte": 4057,
      "workers": 4058,
      "includes": 4059,
      "industries": 4060,
      "numbers": 4061,
      "ains": 4062,
      "Tur": 4063,
      "focus": 4064,
      "occup": 4065,
      "imag": 4066,
      "excl": 4067,
      "circum": 4068,
      "contains": 4069,
      "disci": 4070,
      "lip": 4071,
      "November": 4072,
      "Bang": 4073,
      "sons": 4074,
      "increasing": 4075,
      "software": 4076,
      "directory": 4077,
      "insect": 4078,
      "pret": 4079,
      "Which": 4080,
      "Nar": 4081,
      "eye": 4082,
      "ulations": 4083,
      "code": 4084,
      "Address": 4085,
      "scientific": 4086,
      "Sri": 4087,
      "Tamil": 4088,
      "select": 4089,
      "advance": 4090,
      "assistance": 4091,
      "legisl": 4092,
      "Lok": 4093,
      "marks": 4094,
      "laid": 4095,
      "hun": 4096,
      "ids": 4097,
      "Truth": 4098,
      "leng": 4099,
      "stead": 4100,
      "honour": 4101,
      "RO": 4102,
      "bun": 4103,
      "xy": 4104,
      "Ay": 4105,
      "email": 4106,
      "located": 4107,
      "Red": 4108,
      "adise": 4109,
      "broad": 4110,
      "perhaps": 4111,
      "Group": 4112,
      "paper": 4113,
      "rise": 4114,
      "Ann": 4115,
      "Message": 4116,
      "greet": 4117,
      "cru": 4118,
      "medic": 4119,
      "granted": 4120,
      "arily": 4121,
      "gods": 4122,
      "collection": 4123,
      "custom": 4124,
      "fruit": 4125,
      "award": 4126,
      "speed": 4127,
      "Start": 4128,
      "cutta": 4129,
      "ration": 4130,
      "accordance": 4131,
      "compet": 4132,
      "dial": 4133,
      "Aug": 4134,
      "June": 4135,
      "Last": 4136,
      "Create": 4137,
      "contribution": 4138,
      "transport": 4139,
      "techno": 4140,
      "sn": 4141,
      "repe": 4142,
      "ipur": 4143,
      "iter": 4144,
      "eved": 4145,
      "Tag": 4146,
      "weight": 4147,
      "husband": 4148,
      "police": 4149,
      "tember": 4150,
      "Calcutta": 4151,
      "sacr": 4152,
      "expenditure": 4153,
      "iation": 4154,
      "Well": 4155,
      "race": 4156,
      "distin": 4157,
      "ternet": 4158,
      "pil": 4159,
      "apost": 4160,
      "leading": 4161,
      "moment": 4162,
      "izing": 4163,
      "announ": 4164,
      "agriculture": 4165,
      "memory": 4166,
      "directly": 4167,
      "Did": 4168,
      "Pat": 4169,
      "Win": 4170,
      "September": 4171,
      "challeng": 4172,
      "iff": 4173,
      "types": 4174,
      "lu": 4175,
      "plug": 4176,
      "violence": 4177,
      "inj": 4178,
      "omin": 4179,
      "icket": 4180,
      "script": 4181,
      "expression": 4182,
      "quick": 4183,
      "administration": 4184,
      "Ker": 4185,
      "assets": 4186,
      "complain": 4187,
      "ules": 4188,
      "promised": 4189,
      "dden": 4190,
      "hours": 4191,
      "transa": 4192,
      "laws": 4193,
      "amental": 4194,
      "Mumbai": 4195,
      "Organ": 4196,
      "sco": 4197,
      "mountains": 4198,
      "Di": 4199,
      "temporary": 4200,
      "Ter": 4201,
      "concl": 4202,
      "sides": 4203,
      "villages": 4204,
      "Children": 4205,
      "foot": 4206,
      "middle": 4207,
      "insp": 4208,
      "attract": 4209,
      "Sched": 4210,
      "repent": 4211,
      "umn": 4212,
      "print": 4213,
      "balance": 4214,
      "Messengers": 4215,
      "01": 4216,
      "operative": 4217,
      "measures": 4218,
      "opened": 4219,
      "separate": 4220,
      "Its": 4221,
      "Maj": 4222,
      "smo": 4223,
      "bul": 4224,
      "orders": 4225,
      "Sol": 4226,
      "Thou": 4227,
      "opinion": 4228,
      "photo": 4229,
      "graphy": 4230,
      "benefits": 4231,
      "heat": 4232,
      "ster": 4233,
      "denied": 4234,
      "Bharat": 4235,
      "attention": 4236,
      "forgive": 4237,
      "centre": 4238,
      "drug": 4239,
      "nations": 4240,
      "AM": 4241,
      "Bas": 4242,
      "thir": 4243,
      "twenty": 4244,
      "inside": 4245,
      "HT": 4246,
      "ende": 4247,
      "symb": 4248,
      "Management": 4249,
      "standard": 4250,
      "transgress": 4251,
      "Cap": 4252,
      "table": 4253,
      "arrange": 4254,
      "35": 4255,
      "inn": 4256,
      "Forgiving": 4257,
      "PS": 4258,
      "deemed": 4259,
      "Satan": 4260,
      "La": 4261,
      "Rel": 4262,
      "Vis": 4263,
      "knowing": 4264,
      "named": 4265,
      "Loc": 4266,
      "cooperation": 4267,
      "Her": 4268,
      "straight": 4269,
      "warm": 4270,
      "disc": 4271,
      "largest": 4272,
      "highest": 4273,
      "game": 4274,
      "asa": 4275,
      "Inter": 4276,
      "saved": 4277,
      "plication": 4278,
      "icted": 4279,
      "completed": 4280,
      "pure": 4281,
      "played": 4282,
      "advant": 4283,
      "Shah": 4284,
      "supply": 4285,
      "effort": 4286,
      "ateful": 4287,
      "Work": 4288,
      "til": 4289,
      "aint": 4290,
      "config": 4291,
      "taste": 4292,
      "officers": 4293,
      "ishn": 4294,
      "permission": 4295,
      "thentic": 4296,
      "Sik": 4297,
      "protection": 4298,
      "IM": 4299,
      "partners": 4300,
      "joint": 4301,
      "corrup": 4302,
      "Folder": 4303,
      "Western": 4304,
      "bri": 4305,
      "frame": 4306,
      "export": 4307,
      "ilater": 4308,
      "wills": 4309,
      "someone": 4310,
      "pattern": 4311,
      "milk": 4312,
      "bot": 4313,
      "calendar": 4314,
      "Bab": 4315,
      "longer": 4316,
      "iss": 4317,
      "extent": 4318,
      "chastisement": 4319,
      "ayan": 4320,
      "valu": 4321,
      "util": 4322,
      "acade": 4323,
      "enemy": 4324,
      "screen": 4325,
      "polic": 4326,
      "Vi": 4327,
      "iers": 4328,
      "performance": 4329,
      "length": 4330,
      "pleasure": 4331,
      "Gujarat": 4332,
      "EE": 4333,
      "Ur": 4334,
      "sins": 4335,
      "shows": 4336,
      "otherwise": 4337,
      "documents": 4338,
      "“%": 4339,
      "north": 4340,
      "nut": 4341,
      "trial": 4342,
      "Mic": 4343,
      "consum": 4344,
      "cere": 4345,
      "mechan": 4346,
      "08": 4347,
      "appeal": 4348,
      "!\"": 4349,
      "Time": 4350,
      "ws": 4351,
      "Bihar": 4352,
      "rank": 4353,
      "commod": 4354,
      "subscri": 4355,
      "Krishna": 4356,
      "August": 4357,
      "hru": 4358,
      "implementation": 4359,
      "entered": 4360,
      "Right": 4361,
      "PO": 4362,
      "complex": 4363,
      "ying": 4364,
      "rupe": 4365,
      "html": 4366,
      "contr": 4367,
      "perman": 4368,
      "included": 4369,
      "compass": 4370,
      "join": 4371,
      "SH": 4372,
      "Import": 4373,
      "moral": 4374,
      "\",": 4375,
      "Agric": 4376,
      "Home": 4377,
      "intellect": 4378,
      "First": 4379,
      "ites": 4380,
      "appreci": 4381,
      "struct": 4382,
      "appropriate": 4383,
      "Had": 4384,
      "vict": 4385,
      "wered": 4386,
      "istration": 4387,
      "Rad": 4388,
      "San": 4389,
      "sudden": 4390,
      "warn": 4391,
      "rev": 4392,
      "bab": 4393,
      "asc": 4394,
      "(%": 4395,
      "items": 4396,
      "furn": 4397,
      "species": 4398,
      "dem": 4399,
      "adu": 4400,
      "journey": 4401,
      "ae": 4402,
      "advice": 4403,
      "funds": 4404,
      "marriage": 4405,
      "minus": 4406,
      "struggle": 4407,
      "mony": 4408,
      "Assist": 4409,
      "Back": 4410,
      "Text": 4411,
      "tool": 4412,
      "reser": 4413,
      "Aud": 4414,
      "neur": 4415,
      "ilateral": 4416,
      "hra": 4417,
      "vind": 4418,
      "educational": 4419,
      "communic": 4420,
      "Edit": 4421,
      "ume": 4422,
      "mouth": 4423,
      "labour": 4424,
      "secure": 4425,
      "democracy": 4426,
      "ception": 4427,
      "mical": 4428,
      "dece": 4429,
      "south": 4430,
      "Car": 4431,
      "Law": 4432,
      "ots": 4433,
      "rog": 4434,
      "Finance": 4435,
      "master": 4436,
      "Policy": 4437,
      "ball": 4438,
      "hour": 4439,
      "equip": 4440,
      "SAW": 4441,
      "won": 4442,
      "Office": 4443,
      "consideration": 4444,
      "Bomb": 4445,
      "ferences": 4446,
      "flict": 4447,
      "Indians": 4448,
      "apart": 4449,
      "numer": 4450,
      "mist": 4451,
      "isdom": 4452,
      "icial": 4453,
      "operations": 4454,
      "employees": 4455,
      "reading": 4456,
      "believing": 4457,
      "Langu": 4458,
      "fields": 4459,
      "heavy": 4460,
      "oga": 4461,
      "results": 4462,
      "unique": 4463,
      "drive": 4464,
      "functions": 4465,
      "mid": 4466,
      "inary": 4467,
      "dep": 4468,
      "stated": 4469,
      "stories": 4470,
      "uman": 4471,
      "constant": 4472,
      "curren": 4473,
      "Paradise": 4474,
      "actions": 4475,
      "perfect": 4476,
      "growing": 4477,
      "site": 4478,
      "ilies": 4479,
      "uss": 4480,
      "Unable": 4481,
      "www": 4482,
      "likely": 4483,
      "Bill": 4484,
      "endment": 4485,
      "Fl": 4486,
      "yan": 4487,
      "Pass": 4488,
      "map": 4489,
      "enced": 4490,
      "Power": 4491,
      "revolution": 4492,
      "shr": 4493,
      "useful": 4494,
      "defined": 4495,
      "territ": 4496,
      "PA": 4497,
      "views": 4498,
      "schemes": 4499,
      "BC": 4500,
      "More": 4501,
      "committed": 4502,
      "URL": 4503,
      "gardens": 4504,
      "Bus": 4505,
      "urance": 4506,
      "Account": 4507,
      "Science": 4508,
      "trees": 4509,
      "jun": 4510,
      "entry": 4511,
      "stituted": 4512,
      "Chairman": 4513,
      "staff": 4514,
      "July": 4515,
      "mu": 4516,
      "ifying": 4517,
      "Nay": 4518,
      "technical": 4519,
      "ashtra": 4520,
      "registered": 4521,
      "mukherjee": 4522,
      "Assembly": 4523,
      "arer": 4524,
      "exc": 4525,
      "pranab": 4526,
      "counter": 4527,
      "payable": 4528,
      "processing": 4529,
      "thinking": 4530,
      "utes": 4531,
      "Over": 4532,
      "asts": 4533,
      "Path": 4534,
      "aining": 4535,
      "door": 4536,
      "holding": 4537,
      "drawn": 4538,
      "praise": 4539,
      "Nehru": 4540,
      "cot": 4541,
      "iry": 4542,
      "adopted": 4543,
      "seem": 4544,
      "ching": 4545,
      "Head": 4546,
      "storage": 4547,
      "pranabmukherjee": 4548,
      "Bu": 4549,
      "inner": 4550,
      "eder": 4551,
      "leaves": 4552,
      "succeed": 4553,
      "sphere": 4554,
      "Delete": 4555,
      "Remove": 4556,
      "virt": 4557,
      "Guru": 4558,
      ",\"": 4559,
      "gate": 4560,
      "grateful": 4561,
      "divided": 4562,
      "ishing": 4563,
      "gent": 4564,
      "recomp": 4565,
      "hypo": 4566,
      "contained": 4567,
      "Bombay": 4568,
      "propos": 4569,
      "syn": 4570,
      "communication": 4571,
      "Post": 4572,
      "Window": 4573,
      "RI": 4574,
      "SS": 4575,
      "advis": 4576,
      "abs": 4577,
      "Excell": 4578,
      "bruary": 4579,
      "Hist": 4580,
      "consequ": 4581,
      "involved": 4582,
      "uled": 4583,
      "iency": 4584,
      "apan": 4585,
      "media": 4586,
      "temper": 4587,
      "Secretary": 4588,
      "yer": 4589,
      "waste": 4590,
      "engaged": 4591,
      "February": 4592,
      "ras": 4593,
      "ador": 4594,
      "2007": 4595,
      "declared": 4596,
      "powerful": 4597,
      "hib": 4598,
      "temples": 4599,
      "profit": 4600,
      "cells": 4601,
      "helped": 4602,
      "military": 4603,
      "Ah": 4604,
      "Nep": 4605,
      "square": 4606,
      "ump": 4607,
      "cash": 4608,
      "lived": 4609,
      "questions": 4610,
      "Rajas": 4611,
      "iling": 4612,
      "China": 4613,
      "scul": 4614,
      "terrorism": 4615,
      "exists": 4616,
      "grand": 4617,
      "Nath": 4618,
      "Pan": 4619,
      "del": 4620,
      "utter": 4621,
      "track": 4622,
      "Pand": 4623,
      "inet": 4624,
      "closed": 4625,
      "domestic": 4626,
      "emphas": 4627,
      "divine": 4628,
      "images": 4629,
      "onder": 4630,
      "fruits": 4631,
      "archite": 4632,
      "rom": 4633,
      "Ke": 4634,
      "ils": 4635,
      "hearing": 4636,
      "skill": 4637,
      "obed": 4638,
      "minister": 4639,
      "Ger": 4640,
      "ba": 4641,
      "reference": 4642,
      "2006": 4643,
      "Assam": 4644,
      "causes": 4645,
      ".—": 4646,
      "points": 4647,
      "bon": 4648,
      "brid": 4649,
      "Image": 4650,
      "Ear": 4651,
      "Yes": 4652,
      "web": 4653,
      "constitution": 4654,
      "promote": 4655,
      "animal": 4656,
      "officer": 4657,
      "policies": 4658,
      "gas": 4659,
      "atha": 4660,
      "refu": 4661,
      "veget": 4662,
      "amongst": 4663,
      "earned": 4664,
      "neigh": 4665,
      "developing": 4666,
      "extreme": 4667,
      "aces": 4668,
      "input": 4669,
      "moving": 4670,
      "button": 4671,
      "Tra": 4672,
      "lad": 4673,
      "calls": 4674,
      "chand": 4675,
      "Thr": 4676,
      "aily": 4677,
      "shape": 4678,
      "needed": 4679,
      "commercial": 4680,
      "Fore": 4681,
      "shares": 4682,
      "gather": 4683,
      "31": 4684,
      "cloud": 4685,
      "ja": 4686,
      "enable": 4687,
      "families": 4688,
      "expressed": 4689,
      "sometimes": 4690,
      "deduction": 4691,
      "events": 4692,
      "nuc": 4693,
      "ology": 4694,
      "Stand": 4695,
      "Enable": 4696,
      "spl": 4697,
      "ays": 4698,
      "Pa": 4699,
      "tid": 4700,
      "truly": 4701,
      "ff": 4702,
      "Beli": 4703,
      "holds": 4704,
      "inent": 4705,
      "external": 4706,
      "diction": 4707,
      "season": 4708,
      "messengers": 4709,
      "relationship": 4710,
      "influence": 4711,
      "Bes": 4712,
      "tingu": 4713,
      "voice": 4714,
      "NO": 4715,
      "dance": 4716,
      "2017": 4717,
      "CON": 4718,
      "stop": 4719,
      "consciousness": 4720,
      "refuge": 4721,
      "Prin": 4722,
      "wives": 4723,
      "opt": 4724,
      "Unto": 4725,
      "Kerala": 4726,
      "02": 4727,
      "rol": 4728,
      "facilit": 4729,
      "pover": 4730,
      "prison": 4731,
      "organisation": 4732,
      "magic": 4733,
      "ino": 4734,
      "asp": 4735,
      "circumstances": 4736,
      "settle": 4737,
      "seems": 4738,
      "standards": 4739,
      "killed": 4740,
      "Descri": 4741,
      "prise": 4742,
      "ignor": 4743,
      "2005": 4744,
      "Men": 4745,
      "ogle": 4746,
      "interests": 4747,
      "expand": 4748,
      "adequ": 4749,
      "response": 4750,
      "friendly": 4751,
      "Palest": 4752,
      "lex": 4753,
      "fee": 4754,
      "visible": 4755,
      "iii": 4756,
      "Gandhiji": 4757,
      "average": 4758,
      "india": 4759,
      "desires": 4760,
      "remained": 4761,
      "model": 4762,
      "earn": 4763,
      "atma": 4764,
      "root": 4765,
      "ordinary": 4766,
      "series": 4767,
      "marked": 4768,
      "satisf": 4769,
      "van": 4770,
      "threat": 4771,
      "profession": 4772,
      "choose": 4773,
      "determined": 4774,
      "depart": 4775,
      "preneur": 4776,
      "additional": 4777,
      "pped": 4778,
      "ading": 4779,
      "iled": 4780,
      "covery": 4781,
      "remains": 4782,
      "Might": 4783,
      "jur": 4784,
      "lest": 4785,
      "pit": 4786,
      "plate": 4787,
      "nes": 4788,
      "Kol": 4789,
      "inery": 4790,
      "2012": 4791,
      "attempt": 4792,
      "variety": 4793,
      "abilities": 4794,
      "icated": 4795,
      "sell": 4796,
      "compon": 4797,
      "Check": 4798,
      "AB": 4799,
      "egg": 4800,
      "taught": 4801,
      "rejected": 4802,
      "mig": 4803,
      "mutual": 4804,
      "inaug": 4805,
      "online": 4806,
      "roll": 4807,
      "Hel": 4808,
      "Knowing": 4809,
      "School": 4810,
      "pression": 4811,
      "Conference": 4812,
      "Ham": 4813,
      "”.": 4814,
      "Also": 4815,
      "surface": 4816,
      "store": 4817,
      "sections": 4818,
      "extended": 4819,
      "entr": 4820,
      "medium": 4821,
      "stock": 4822,
      "skin": 4823,
      "auty": 4824,
      "heed": 4825,
      "arrow": 4826,
      "elements": 4827,
      "ML": 4828,
      "Japan": 4829,
      "Distr": 4830,
      "Mer": 4831,
      "edge": 4832,
      "larger": 4833,
      "urban": 4834,
      "trying": 4835,
      "Rajasthan": 4836,
      "2008": 4837,
      "levels": 4838,
      "iting": 4839,
      "cultiv": 4840,
      "vation": 4841,
      "chosen": 4842,
      "cat": 4843,
      "refers": 4844,
      "fat": 4845,
      "station": 4846,
      "akes": 4847,
      "usive": 4848,
      "approv": 4849,
      "Exchange": 4850,
      "Corporation": 4851,
      "Maharashtra": 4852,
      "proud": 4853,
      "hak": 4854,
      "sid": 4855,
      "rew": 4856,
      "hell": 4857,
      "ague": 4858,
      "icked": 4859,
      "evening": 4860,
      "looked": 4861,
      "Elect": 4862,
      "quant": 4863,
      "worked": 4864,
      "sectors": 4865,
      "crops": 4866,
      "utions": 4867,
      "whosoever": 4868,
      "umber": 4869,
      "Because": 4870,
      "opening": 4871,
      "behav": 4872,
      "ford": 4873,
      "solute": 4874,
      "griev": 4875,
      "difference": 4876,
      "hya": 4877,
      "sale": 4878,
      "lawful": 4879,
      "described": 4880,
      "burden": 4881,
      "independence": 4882,
      "brings": 4883,
      "Soci": 4884,
      "target": 4885,
      "machine": 4886,
      "distance": 4887,
      "European": 4888,
      "electric": 4889,
      "1961": 4890,
      "Ra": 4891,
      "bra": 4892,
      "associate": 4893,
      "Sah": 4894,
      "capt": 4895,
      "distribution": 4896,
      "imper": 4897,
      "eties": 4898,
      "pred": 4899,
      "2019": 4900,
      "oblig": 4901,
      "See": 4902,
      "reflect": 4903,
      "output": 4904,
      "ET": 4905,
      "Nav": 4906,
      "Hindus": 4907,
      "clearly": 4908,
      "observed": 4909,
      "dust": 4910,
      "fine": 4911,
      "pill": 4912,
      "entit": 4913,
      "charges": 4914,
      "teachers": 4915,
      "aja": 4916,
      "truthful": 4917,
      "cattle": 4918,
      "km": 4919,
      "review": 4920,
      "ora": 4921,
      "poems": 4922,
      "Sir": 4923,
      "brothers": 4924,
      "appointment": 4925,
      "aksh": 4926,
      "approved": 4927,
      "Mission": 4928,
      "worth": 4929,
      "borrow": 4930,
      "risk": 4931,
      "09": 4932,
      "died": 4933,
      "Change": 4934,
      "annual": 4935,
      "objective": 4936,
      "abroad": 4937,
      "intellig": 4938,
      "delive": 4939,
      "useum": 4940,
      "holders": 4941,
      "keeping": 4942,
      "ronic": 4943,
      "45": 4944,
      "deg": 4945,
      "listen": 4946,
      "unity": 4947,
      "ifice": 4948,
      "paign": 4949,
      "fellow": 4950,
      "launched": 4951,
      "cop": 4952,
      "Stat": 4953,
      "independent": 4954,
      "Description": 4955,
      "hidden": 4956,
      "anc": 4957,
      "applications": 4958,
      "Mary": 4959,
      "illi": 4960,
      "vast": 4961,
      "worthy": 4962,
      "messenger": 4963,
      "association": 4964,
      "Special": 4965,
      "Akbar": 4966,
      "walk": 4967,
      "MA": 4968,
      "cular": 4969,
      "fell": 4970,
      "sleep": 4971,
      "elf": 4972,
      "introduced": 4973,
      "west": 4974,
      "tidings": 4975,
      "wisdom": 4976,
      "ially": 4977,
      "membr": 4978,
      "exercise": 4979,
      "ficiency": 4980,
      "Iran": 4981,
      "voc": 4982,
      "removed": 4983,
      "spring": 4984,
      "maximum": 4985,
      "Mag": 4986,
      "bled": 4987,
      "els": 4988,
      "ibility": 4989,
      "homes": 4990,
      "presents": 4991,
      "majority": 4992,
      "deliver": 4993,
      "confidence": 4994,
      "thank": 4995,
      "Pres": 4996,
      "tro": 4997,
      "Services": 4998,
      "safety": 4999,
      "poverty": 5000,
      "75": 5001,
      "Tagore": 5002,
      "dim": 5003,
      "spent": 5004,
      "submit": 5005,
      "enjoy": 5006,
      "inf": 5007,
      "charged": 5008,
      "multi": 5009,
      "academic": 5010,
      "bour": 5011,
      "oral": 5012,
      "Google": 5013,
      "Sum": 5014,
      "cend": 5015,
      "enn": 5016,
      "pleased": 5017,
      "songs": 5018,
      "demon": 5019,
      "boo": 5020,
      "logies": 5021,
      "rupees": 5022,
      "trou": 5023,
      "istics": 5024,
      "remote": 5025,
      "affairs": 5026,
      "convey": 5027,
      "consu": 5028,
      "throughout": 5029,
      "easily": 5030,
      "Free": 5031,
      "army": 5032,
      "fresh": 5033,
      "Health": 5034,
      "flag": 5035,
      "ourselves": 5036,
      "Rama": 5037,
      "literary": 5038,
      "goal": 5039,
      "joy": 5040,
      "soft": 5041,
      "delivered": 5042,
      "Kum": 5043,
      "Make": 5044,
      "hide": 5045,
      "beauty": 5046,
      "ousing": 5047,
      "Both": 5048,
      "procedure": 5049,
      "uries": 5050,
      "ideal": 5051,
      "Water": 5052,
      "reh": 5053,
      "spa": 5054,
      "offered": 5055,
      "preced": 5056,
      "organization": 5057,
      "Rail": 5058,
      "antic": 5059,
      "glad": 5060,
      "birds": 5061,
      "philosophy": 5062,
      "Type": 5063,
      "studies": 5064,
      "symbol": 5065,
      "Mail": 5066,
      "2002": 5067,
      "assigned": 5068,
      "CP": 5069,
      "Port": 5070,
      "characters": 5071,
      "Division": 5072,
      "empty": 5073,
      "nur": 5074,
      "2001": 5075,
      "Mahatma": 5076,
      "soil": 5077,
      "seeking": 5078,
      "dut": 5079,
      "vic": 5080,
      "tenance": 5081,
      "CS": 5082,
      "congrat": 5083,
      "disbelieved": 5084,
      "nine": 5085,
      "context": 5086,
      "Web": 5087,
      "greatest": 5088,
      "surround": 5089,
      "iny": 5090,
      "department": 5091,
      "yield": 5092,
      "venant": 5093,
      "dry": 5094,
      "slow": 5095,
      "extra": 5096,
      "ARD": 5097,
      "rapid": 5098,
      "acious": 5099,
      "enge": 5100,
      "ented": 5101,
      "compreh": 5102,
      "audi": 5103,
      "innovation": 5104,
      "distingu": 5105,
      "element": 5106,
      "District": 5107,
      "late": 5108,
      "dex": 5109,
      "Bad": 5110,
      "Data": 5111,
      "bodies": 5112,
      "History": 5113,
      "DO": 5114,
      "avid": 5115,
      "Second": 5116,
      "ysis": 5117,
      "hospital": 5118,
      "eval": 5119,
      "travel": 5120,
      "bing": 5121,
      "MP": 5122,
      "Key": 5123,
      "Social": 5124,
      "ahar": 5125,
      "ktop": 5126,
      "authentic": 5127,
      "avoid": 5128,
      "pressed": 5129,
      "namely": 5130,
      "gains": 5131,
      "automat": 5132,
      "Dep": 5133,
      "consult": 5134,
      "attend": 5135,
      "Display": 5136,
      "initiatives": 5137,
      "affected": 5138,
      "primary": 5139,
      "Each": 5140,
      "Nat": 5141,
      "River": 5142,
      "hic": 5143,
      "prises": 5144,
      "forbidden": 5145,
      "kinds": 5146,
      "amb": 5147,
      "sett": 5148,
      "settings": 5149,
      "extend": 5150,
      "articles": 5151,
      "merely": 5152,
      "ails": 5153,
      "Among": 5154,
      "schools": 5155,
      "rock": 5156,
      "calcul": 5157,
      "owner": 5158,
      "wherein": 5159,
      "Though": 5160,
      "Himal": 5161,
      "mainly": 5162,
      "agreed": 5163,
      "micro": 5164,
      "blessings": 5165,
      "atter": 5166,
      "conver": 5167,
      "aur": 5168,
      "vital": 5169,
      "souls": 5170,
      "oath": 5171,
      "ira": 5172,
      "replied": 5173,
      "alty": 5174,
      "bunal": 5175,
      "cand": 5176,
      "frequ": 5177,
      "generations": 5178,
      "rates": 5179,
      "practices": 5180,
      "90": 5181,
      "daily": 5182,
      "altern": 5183,
      "reduced": 5184,
      "Since": 5185,
      "profits": 5186,
      "happen": 5187,
      "sole": 5188,
      "cook": 5189,
      "minor": 5190,
      "kingdom": 5191,
      "IF": 5192,
      "Two": 5193,
      "alted": 5194,
      "undertaking": 5195,
      "cow": 5196,
      "ptions": 5197,
      "joined": 5198,
      "sustain": 5199,
      "title": 5200,
      "Besides": 5201,
      "aling": 5202,
      "Commun": 5203,
      "follows": 5204,
      "welfare": 5205,
      "stre": 5206,
      "enses": 5207,
      "itis": 5208,
      "ears": 5209,
      "minimum": 5210,
      "machinery": 5211,
      "returns": 5212,
      "attribut": 5213,
      "discipl": 5214,
      "ience": 5215,
      "org": 5216,
      "feeling": 5217,
      "challenges": 5218,
      "Hour": 5219,
      "forever": 5220,
      "Subhas": 5221,
      "Bengali": 5222,
      "folders": 5223,
      "guil": 5224,
      "Programme": 5225,
      "excess": 5226,
      "height": 5227,
      "compl": 5228,
      "Arch": 5229,
      "installed": 5230,
      "carrying": 5231,
      "Gre": 5232,
      "concept": 5233,
      "Default": 5234,
      "Ash": 5235,
      "ec": 5236,
      "Independ": 5237,
      "geo": 5238,
      "creating": 5239,
      "string": 5240,
      "solution": 5241,
      "happened": 5242,
      "claimed": 5243,
      "Great": 5244,
      "GE": 5245,
      "wild": 5246,
      "turns": 5247,
      "Lim": 5248,
      "regional": 5249,
      "appeared": 5250,
      "east": 5251,
      "willing": 5252,
      "Prom": 5253,
      "library": 5254,
      "block": 5255,
      "Bhag": 5256,
      "Environment": 5257,
      "passing": 5258,
      "girl": 5259,
      "excellent": 5260,
      "recompense": 5261,
      "mobile": 5262,
      "Ba": 5263,
      "Khan": 5264,
      "sought": 5265,
      "vention": 5266,
      "atab": 5267,
      "aters": 5268,
      "impact": 5269,
      "wants": 5270,
      "ensu": 5271,
      "depos": 5272,
      "respective": 5273,
      "authorities": 5274,
      "teacher": 5275,
      "universal": 5276,
      "Bl": 5277,
      "cance": 5278,
      "hair": 5279,
      "plat": 5280,
      "eases": 5281,
      "App": 5282,
      "wing": 5283,
      "colour": 5284,
      "festival": 5285,
      "Gl": 5286,
      "ula": 5287,
      "Ce": 5288,
      "Don": 5289,
      "asi": 5290,
      "notification": 5291,
      "match": 5292,
      "PRO": 5293,
      "70": 5294,
      "ape": 5295,
      "covenant": 5296,
      "battle": 5297,
      "highly": 5298,
      "actor": 5299,
      "memor": 5300,
      "Word": 5301,
      "cold": 5302,
      "pag": 5303,
      "completely": 5304,
      "pu": 5305,
      "notes": 5306,
      "sand": 5307,
      "Financial": 5308,
      "Aust": 5309,
      "cou": 5310,
      "resource": 5311,
      "upper": 5312,
      "prepar": 5313,
      "Def": 5314,
      "izations": 5315,
      "garden": 5316,
      "huge": 5317,
      "Official": 5318,
      "critical": 5319,
      "CA": 5320,
      "Date": 5321,
      "Non": 5322,
      "mur": 5323,
      "iles": 5324,
      "concern": 5325,
      "Certificate": 5326,
      "Foreign": 5327,
      "tong": 5328,
      "Jose": 5329,
      "submitted": 5330,
      "thered": 5331,
      "tees": 5332,
      "ckon": 5333,
      "express": 5334,
      "actual": 5335,
      "positive": 5336,
      "campaign": 5337,
      "lord": 5338,
      "courage": 5339,
      "dispute": 5340,
      "chemical": 5341,
      "Pri": 5342,
      "aji": 5343,
      "changing": 5344,
      "partnership": 5345,
      "psy": 5346,
      "individuals": 5347,
      "Noah": 5348,
      "inform": 5349,
      "forget": 5350,
      "moved": 5351,
      "diseases": 5352,
      "degree": 5353,
      "Rules": 5354,
      "iring": 5355,
      "accur": 5356,
      "Language": 5357,
      "rare": 5358,
      "ancing": 5359,
      "entre": 5360,
      "Peace": 5361,
      "communities": 5362,
      "destination": 5363,
      "probably": 5364,
      "Nepal": 5365,
      "background": 5366,
      "critic": 5367,
      "prosperity": 5368,
      "hot": 5369,
      "achal": 5370,
      "destru": 5371,
      "reality": 5372,
      "Panch": 5373,
      "learned": 5374,
      "integral": 5375,
      "treated": 5376,
      "Ganga": 5377,
      "Gardens": 5378,
      "Cus": 5379,
      "confident": 5380,
      "Authority": 5381,
      "guilty": 5382,
      "techni": 5383,
      "latter": 5384,
      "Ste": 5385,
      "Click": 5386,
      "darkness": 5387,
      "Network": 5388,
      "theme": 5389,
      "reasons": 5390,
      "Would": 5391,
      "ounty": 5392,
      "Econom": 5393,
      "ultim": 5394,
      "Artic": 5395,
      "Life": 5396,
      "tend": 5397,
      "Cho": 5398,
      "Send": 5399,
      "suitable": 5400,
      "ensation": 5401,
      "division": 5402,
      "36": 5403,
      "delivery": 5404,
      "destroy": 5405,
      "Excellency": 5406,
      "supre": 5407,
      "Jews": 5408,
      "gin": 5409,
      "relief": 5410,
      "entitled": 5411,
      "05": 5412,
      "reven": 5413,
      "onom": 5414,
      "iven": 5415,
      "thereby": 5416,
      "materials": 5417,
      "Tour": 5418,
      "delay": 5419,
      "imal": 5420,
      "features": 5421,
      "blow": 5422,
      "atom": 5423,
      "citizen": 5424,
      "requirements": 5425,
      "picture": 5426,
      "greetings": 5427,
      "dialog": 5428,
      "Chandra": 5429,
      "aspects": 5430,
      "Andhra": 5431,
      "Assess": 5432,
      "sacred": 5433,
      "Current": 5434,
      "Company": 5435,
      "piece": 5436,
      "yourself": 5437,
      "latest": 5438,
      "pressure": 5439,
      "meant": 5440,
      "acted": 5441,
      "adequate": 5442,
      "sick": 5443,
      "tocol": 5444,
      "substant": 5445,
      "Prote": 5446,
      "Det": 5447,
      "deposit": 5448,
      "shi": 5449,
      "estim": 5450,
      "merc": 5451,
      "wronged": 5452,
      "although": 5453,
      "Library": 5454,
      "governance": 5455,
      "wan": 5456,
      "incident": 5457,
      "brow": 5458,
      "pire": 5459,
      "users": 5460,
      "Play": 5461,
      "duties": 5462,
      "ache": 5463,
      "Speaking": 5464,
      "zone": 5465,
      "arms": 5466,
      "bug": 5467,
      "regions": 5468,
      "crop": 5469,
      "advantage": 5470,
      "reply": 5471,
      "victory": 5472,
      "Sun": 5473,
      "ames": 5474,
      "everyone": 5475,
      "correspond": 5476,
      "leadership": 5477,
      "England": 5478,
      "internal": 5479,
      "teaching": 5480,
      "principles": 5481,
      "Call": 5482,
      "Doc": 5483,
      "Russ": 5484,
      "Trust": 5485,
      "establishment": 5486,
      "performed": 5487,
      "attached": 5488,
      "evolution": 5489,
      "Joseph": 5490,
      "fab": 5491,
      "oth": 5492,
      "editor": 5493,
      "1999": 5494,
      "description": 5495,
      "Like": 5496,
      "inspired": 5497,
      "Yoga": 5498,
      "reforms": 5499,
      "seized": 5500,
      "selection": 5501,
      "shared": 5502,
      "tribution": 5503,
      "privile": 5504,
      "FOR": 5505,
      "Internet": 5506,
      "click": 5507,
      "Joh": 5508,
      "lasting": 5509,
      "recommend": 5510,
      "SP": 5511,
      "inser": 5512,
      "defe": 5513,
      "facility": 5514,
      "delete": 5515,
      "Color": 5516,
      "resolution": 5517,
      "approval": 5518,
      "33": 5519,
      "signed": 5520,
      "audio": 5521,
      "Person": 5522,
      "juris": 5523,
      "reform": 5524,
      "Lab": 5525,
      "Park": 5526,
      "tore": 5527,
      "hero": 5528,
      "Ano": 5529,
      "collabor": 5530,
      "BI": 5531,
      "ghal": 5532,
      "dear": 5533,
      "VE": 5534,
      "methods": 5535,
      "ligible": 5536,
      "foundation": 5537,
      "rant": 5538,
      "throw": 5539,
      "DV": 5540,
      "prices": 5541,
      "Maha": 5542,
      "Buddha": 5543,
      "lap": 5544,
      "column": 5545,
      "College": 5546,
      "ological": 5547,
      "stance": 5548,
      "amin": 5549,
      "brah": 5550,
      "seeing": 5551,
      "planning": 5552,
      "pon": 5553,
      "iti": 5554,
      "participation": 5555,
      "jan": 5556,
      "amed": 5557,
      "double": 5558,
      "07": 5559,
      "daughter": 5560,
      "beings": 5561,
      "irt": 5562,
      "Clear": 5563,
      "married": 5564,
      "waiting": 5565,
      "500": 5566,
      "Ret": 5567,
      "myself": 5568,
      "insurance": 5569,
      "stood": 5570,
      "Str": 5571,
      "sacrifice": 5572,
      "entrepreneur": 5573,
      "enabled": 5574,
      "isition": 5575,
      "bestowed": 5576,
      "orient": 5577,
      "cean": 5578,
      "covering": 5579,
      "Scripture": 5580,
      "danger": 5581,
      "iary": 5582,
      "rench": 5583,
      "Command": 5584,
      "Reserve": 5585,
      "NAME": 5586,
      "ahead": 5587,
      "debt": 5588,
      "servation": 5589,
      "nearly": 5590,
      "released": 5591,
      "petitioner": 5592,
      "sources": 5593,
      "fortun": 5594,
      "LD": 5595,
      "udget": 5596,
      "appears": 5597,
      "intellectual": 5598,
      "Nag": 5599,
      "cide": 5600,
      "coal": 5601,
      "ika": 5602,
      "Wo": 5603,
      "eks": 5604,
      "wonder": 5605,
      "admon": 5606,
      "rial": 5607,
      "drop": 5608,
      "Self": 5609,
      "acter": 5610,
      "ellow": 5611,
      "Governments": 5612,
      "falls": 5613,
      "options": 5614,
      "sched": 5615,
      "liqu": 5616,
      "climate": 5617,
      "Mighty": 5618,
      "arrest": 5619,
      "icit": 5620,
      "Print": 5621,
      "Princi": 5622,
      "registration": 5623,
      "served": 5624,
      "caste": 5625,
      "purchase": 5626,
      "rible": 5627,
      "limits": 5628,
      "Docu": 5629,
      "Assistant": 5630,
      "32": 5631,
      "dess": 5632,
      "via": 5633,
      "challenge": 5634,
      "Number": 5635,
      "mov": 5636,
      "efficient": 5637,
      "Kan": 5638,
      "Karnat": 5639,
      "rang": 5640,
      "faithful": 5641,
      "healthy": 5642,
      "containing": 5643,
      "parent": 5644,
      "Vid": 5645,
      "wage": 5646,
      "ifications": 5647,
      "defence": 5648,
      "ee": 5649,
      "ults": 5650,
      "manager": 5651,
      "awa": 5652,
      "Remember": 5653,
      "plays": 5654,
      "election": 5655,
      "constituted": 5656,
      "consists": 5657,
      "About": 5658,
      "Invalid": 5659,
      "Conne": 5660,
      "jection": 5661,
      "promotion": 5662,
      "recorded": 5663,
      "endeav": 5664,
      "core": 5665,
      "minutes": 5666,
      "User": 5667,
      "una": 5668,
      "Wel": 5669,
      "Knower": 5670,
      "recently": 5671,
      "Cr": 5672,
      "letters": 5673,
      "lal": 5674,
      "eting": 5675,
      "gypt": 5676,
      "fighting": 5677,
      "fi": 5678,
      "raw": 5679,
      "Proper": 5680,
      "publication": 5681,
      "CI": 5682,
      "subjects": 5683,
      "cli": 5684,
      "atmo": 5685,
      "nuclear": 5686,
      "ality": 5687,
      "memo": 5688,
      "writer": 5689,
      "glor": 5690,
      "achieved": 5691,
      "hes": 5692,
      "infl": 5693,
      "bell": 5694,
      "ondon": 5695,
      "happiness": 5696,
      "Civil": 5697,
      "relative": 5698,
      "bilateral": 5699,
      "cod": 5700,
      "exact": 5701,
      "mortal": 5702,
      "historical": 5703,
      "reminder": 5704,
      "failure": 5705,
      "plugin": 5706,
      "Micro": 5707,
      "85": 5708,
      "DP": 5709,
      "GO": 5710,
      "centres": 5711,
      "channel": 5712,
      "fts": 5713,
      "ayana": 5714,
      "agencies": 5715,
      "reduce": 5716,
      "alle": 5717,
      "curities": 5718,
      "isms": 5719,
      "phase": 5720,
      "Another": 5721,
      "reci": 5722,
      "examination": 5723,
      "ressed": 5724,
      "banking": 5725,
      "Palestin": 5726,
      "narr": 5727,
      "liance": 5728,
      "orn": 5729,
      "cris": 5730,
      "solid": 5731,
      "awareness": 5732,
      "Jes": 5733,
      "surv": 5734,
      "Pay": 5735,
      "compe": 5736,
      "visited": 5737,
      "Kovind": 5738,
      "insects": 5739,
      "merciful": 5740,
      "reports": 5741,
      "adi": 5742,
      "extension": 5743,
      "witnesses": 5744,
      "inaugur": 5745,
      "Eas": 5746,
      "esty": 5747,
      "Members": 5748,
      "Egypt": 5749,
      "sort": 5750,
      "delight": 5751,
      "apt": 5752,
      "figures": 5753,
      "sanction": 5754,
      "Writ": 5755,
      "Karnataka": 5756,
      "pter": 5757,
      "dele": 5758,
      "Associ": 5759,
      "suffering": 5760,
      "priority": 5761,
      "scholar": 5762,
      "leaf": 5763,
      "forgiving": 5764,
      "ura": 5765,
      "thanks": 5766,
      "eleph": 5767,
      "volume": 5768,
      "fing": 5769,
      "amal": 5770,
      "Society": 5771,
      "Sen": 5772,
      "commanded": 5773,
      "requires": 5774,
      "treas": 5775,
      "Contact": 5776,
      "Va": 5777,
      "iron": 5778,
      "Before": 5779,
      "Party": 5780,
      "London": 5781,
      "TP": 5782,
      "bin": 5783,
      "Tribunal": 5784,
      "distinct": 5785,
      "capable": 5786,
      "manufacturing": 5787,
      "Mun": 5788,
      "resist": 5789,
      "plot": 5790,
      "assured": 5791,
      "atabase": 5792,
      "bag": 5793,
      "guides": 5794,
      "passion": 5795,
      "successfully": 5796,
      "03": 5797,
      "ghan": 5798,
      "hop": 5799,
      "finance": 5800,
      "looks": 5801,
      "interesting": 5802,
      "scope": 5803,
      "LO": 5804,
      "absolute": 5805,
      "patience": 5806,
      "manufacture": 5807,
      "Das": 5808,
      "Training": 5809,
      "Modi": 5810,
      "recognised": 5811,
      "HO": 5812,
      "stitu": 5813,
      "organised": 5814,
      "refer": 5815,
      "bright": 5816,
      "Once": 5817,
      "breed": 5818,
      "contacts": 5819,
      "Arabic": 5820,
      "arian": 5821,
      "abund": 5822,
      "Stud": 5823,
      "warner": 5824,
      "2009": 5825,
      "DVD": 5826,
      "Rajya": 5827,
      "newspa": 5828,
      "situated": 5829,
      "bone": 5830,
      "grown": 5831,
      "polythe": 5832,
      "obe": 5833,
      "monitor": 5834,
      "whereas": 5835,
      "instance": 5836,
      "enhan": 5837,
      "abh": 5838,
      "believes": 5839,
      "currently": 5840,
      "universities": 5841,
      "Ira": 5842,
      "Next": 5843,
      "Administr": 5844,
      "issa": 5845,
      "bling": 5846,
      "factor": 5847,
      "bringing": 5848,
      "ERS": 5849,
      "Security": 5850,
      "parliament": 5851,
      "falsehood": 5852,
      "arma": 5853,
      "officials": 5854,
      "Justice": 5855,
      "Application": 5856,
      "bind": 5857,
      "oj": 5858,
      "rice": 5859,
      "lean": 5860,
      "Invest": 5861,
      "subsequ": 5862,
      "warning": 5863,
      "burning": 5864,
      "toward": 5865,
      "crow": 5866,
      "dign": 5867,
      "quot": 5868,
      "Iraq": 5869,
      "44": 5870,
      "gor": 5871,
      "poem": 5872,
      "replace": 5873,
      "chance": 5874,
      "iders": 5875,
      "commitment": 5876,
      "scientists": 5877,
      "proceedings": 5878,
      "ipt": 5879,
      "incur": 5880,
      "showing": 5881,
      "rat": 5882,
      "thro": 5883,
      "athi": 5884,
      "Benef": 5885,
      "bles": 5886,
      "Mand": 5887,
      "ju": 5888,
      "2011": 5889,
      "organized": 5890,
      "witch": 5891,
      "Page": 5892,
      "cles": 5893,
      "fundamental": 5894,
      "engineering": 5895,
      "acce": 5896,
      "2004": 5897,
      "records": 5898,
      "supreme": 5899,
      "antly": 5900,
      "Women": 5901,
      "Produ": 5902,
      "Class": 5903,
      "thi": 5904,
      "weeks": 5905,
      "followers": 5906,
      "heads": 5907,
      "Fol": 5908,
      "Ref": 5909,
      "operating": 5910,
      "decades": 5911,
      "Jammu": 5912,
      "Ali": 5913,
      "Vishn": 5914,
      "disk": 5915,
      "democratic": 5916,
      "width": 5917,
      "Press": 5918,
      "strateg": 5919,
      "2003": 5920,
      "student": 5921,
      "Good": 5922,
      "announced": 5923,
      "Find": 5924,
      "Found": 5925,
      "becoming": 5926,
      "irr": 5927,
      "olly": 5928,
      "Export": 5929,
      "defend": 5930,
      "Jesus": 5931,
      "Down": 5932,
      "Fri": 5933,
      "sque": 5934,
      "inspir": 5935,
      "Roy": 5936,
      "render": 5937,
      "iced": 5938,
      "discussion": 5939,
      "Sind": 5940,
      "semin": 5941,
      "dete": 5942,
      "48": 5943,
      "Human": 5944,
      "aly": 5945,
      "ester": 5946,
      "ico": 5947,
      "Unknown": 5948,
      "males": 5949,
      "principle": 5950,
      "scholars": 5951,
      "permanent": 5952,
      "ila": 5953,
      "decor": 5954,
      "offline": 5955,
      "yas": 5956,
      "minis": 5957,
      "factors": 5958,
      "smaller": 5959,
      "sitting": 5960,
      "pite": 5961,
      "ths": 5962,
      "dog": 5963,
      "orph": 5964,
      "chap": 5965,
      "western": 5966,
      "helps": 5967,
      "professional": 5968,
      "Business": 5969,
      "Rem": 5970,
      "icon": 5971,
      "los": 5972,
      "objects": 5973,
      "Amendment": 5974,
      "Ka": 5975,
      "Top": 5976,
      "admit": 5977,
      "ifies": 5978,
      "astic": 5979,
      "tonnes": 5980,
      "DR": 5981,
      "Main": 5982,
      "vehic": 5983,
      "spoke": 5984,
      "applied": 5985,
      "accident": 5986,
      "negative": 5987,
      "proposed": 5988,
      "fraid": 5989,
      "Afghan": 5990,
      "abode": 5991,
      "aughters": 5992,
      "multiple": 5993,
      "elected": 5994,
      "ndra": 5995,
      "unable": 5996,
      "acquired": 5997,
      "fabric": 5998,
      "cave": 5999,
      "hance": 6000,
      "doctor": 6001,
      "compar": 6002,
      "transferred": 6003,
      "buy": 6004,
      "cape": 6005,
      "medicine": 6006,
      "Hon": 6007,
      "tha": 6008,
      "abinet": 6009,
      "prose": 6010,
      "cked": 6011,
      "Process": 6012,
      "Cham": 6013,
      "MB": 6014,
      "Tu": 6015,
      "UL": 6016,
      "daughters": 6017,
      "deleg": 6018,
      "conflict": 6019,
      "Legislative": 6020,
      "prec": 6021,
      "register": 6022,
      "Musa": 6023,
      "Bose": 6024,
      "aman": 6025,
      "weap": 6026,
      "whatsoever": 6027,
      "Kumar": 6028,
      "decide": 6029,
      "aced": 6030,
      "preser": 6031,
      "implemented": 6032,
      "translation": 6033,
      "obtained": 6034,
      "Log": 6035,
      "sugar": 6036,
      "concent": 6037,
      "upta": 6038,
      "Chin": 6039,
      "courts": 6040,
      "destruction": 6041,
      "showed": 6042,
      "heritage": 6043,
      "currency": 6044,
      "isations": 6045,
      "effects": 6046,
      "oples": 6047,
      "unk": 6048,
      "identified": 6049,
      "uation": 6050,
      "alt": 6051,
      "Code": 6052,
      "swear": 6053,
      "rated": 6054,
      "reckon": 6055,
      "abide": 6056,
      "brain": 6057,
      "download": 6058,
      "instruments": 6059,
      "settled": 6060,
      "eld": 6061,
      "Control": 6062,
      "Allow": 6063,
      ",—": 6064,
      "unders": 6065,
      "pup": 6066,
      "seas": 6067,
      "interpret": 6068,
      "terrible": 6069,
      "politics": 6070,
      "Task": 6071,
      "sending": 6072,
      "thirty": 6073,
      "escape": 6074,
      "indig": 6075,
      "playing": 6076,
      "sanct": 6077,
      "tric": 6078,
      "withdraw": 6079,
      "Adam": 6080,
      "hammed": 6081,
      "classes": 6082,
      "Take": 6083,
      "tach": 6084,
      "fulfil": 6085,
      "facts": 6086,
      "Tel": 6087,
      "kes": 6088,
      "inherit": 6089,
      "candid": 6090,
      "pha": 6091,
      "launch": 6092,
      "arrog": 6093,
      "gh": 6094,
      "ensions": 6095,
      "choice": 6096,
      "decisions": 6097,
      "Whoever": 6098,
      "damage": 6099,
      "lets": 6100,
      "administrative": 6101,
      "compassion": 6102,
      "friendship": 6103,
      "pollution": 6104,
      "tes": 6105,
      "missions": 6106,
      "doesn": 6107,
      "gathered": 6108,
      "technologies": 6109,
      "Help": 6110,
      "06": 6111,
      "mas": 6112,
      "skills": 6113,
      "Appe": 6114,
      "Pen": 6115,
      "Rev": 6116,
      "armed": 6117,
      "Max": 6118,
      "hasten": 6119,
      "stands": 6120,
      "welcome": 6121,
      "sends": 6122,
      "unknown": 6123,
      "obvious": 6124,
      "broken": 6125,
      "arent": 6126,
      "Chapter": 6127,
      "craft": 6128,
      "ox": 6129,
      "objectives": 6130,
      "-.": 6131,
      "domin": 6132,
      "Nadu": 6133,
      "compared": 6134,
      "thoughts": 6135,
      "initiative": 6136,
      "eligible": 6137,
      "Affairs": 6138,
      "jurisdiction": 6139,
      "archive": 6140,
      "favor": 6141,
      "equipment": 6142,
      "noted": 6143,
      "rence": 6144,
      "maintenance": 6145,
      "initial": 6146,
      "Industrial": 6147,
      "Met": 6148,
      "university": 6149,
      "minds": 6150,
      "John": 6151,
      "Mother": 6152,
      "kan": 6153,
      "bounty": 6154,
      "argument": 6155,
      "agency": 6156,
      "umin": 6157,
      "uded": 6158,
      "sibilities": 6159,
      "Ministers": 6160,
      "addressed": 6161,
      "corruption": 6162,
      "improv": 6163,
      "confirm": 6164,
      "comfort": 6165,
      "iversary": 6166,
      "morrow": 6167,
      "drugs": 6168,
      "communications": 6169,
      "pages": 6170,
      "Vishnu": 6171,
      "conference": 6172,
      "willed": 6173,
      "pathy": 6174,
      "prayers": 6175,
      "conducted": 6176,
      "agon": 6177,
      "dram": 6178,
      "toms": 6179,
      "Orissa": 6180,
      "tasks": 6181,
      "Ban": 6182,
      "finite": 6183,
      "Gan": 6184,
      "Tor": 6185,
      "omever": 6186,
      "examples": 6187,
      "maintained": 6188,
      "sees": 6189,
      "grade": 6190,
      "weather": 6191,
      "union": 6192,
      "qui": 6193,
      "izon": 6194,
      "ankar": 6195,
      "marry": 6196,
      "ordinate": 6197,
      "usual": 6198,
      "py": 6199,
      "spot": 6200,
      "remark": 6201,
      "blessed": 6202,
      "04": 6203,
      "ofindia": 6204,
      "devotion": 6205,
      "suddenly": 6206,
      "Austral": 6207,
      "Gaz": 6208,
      "afraid": 6209,
      "oke": 6210,
      "twel": 6211,
      "suit": 6212,
      "wear": 6213,
      "enemies": 6214,
      "Av": 6215,
      "stars": 6216,
      "centuries": 6217,
      "Report": 6218,
      "pilgr": 6219,
      "territory": 6220,
      "Christian": 6221,
      "presidentofindia": 6222,
      "sam": 6223,
      "blame": 6224,
      "solar": 6225,
      "marketing": 6226,
      "reported": 6227,
      "endra": 6228,
      "arya": 6229,
      "blue": 6230,
      "senior": 6231,
      "Eastern": 6232,
      ")?": 6233,
      "contents": 6234,
      "didn": 6235,
      "afford": 6236,
      "dedicated": 6237,
      "Ev": 6238,
      "anned": 6239,
      "principal": 6240,
      "encourage": 6241,
      "fly": 6242,
      "faction": 6243,
      "Flag": 6244,
      "attitude": 6245,
      "iments": 6246,
      "conven": 6247,
      "complet": 6248,
      "Although": 6249,
      "Engine": 6250,
      "crites": 6251,
      "designed": 6252,
      "OS": 6253,
      "igno": 6254,
      "aims": 6255,
      "electricity": 6256,
      "atmosphere": 6257,
      "transaction": 6258,
      "Has": 6259,
      "Mohammed": 6260,
      "menu": 6261,
      "hit": 6262,
      "subsid": 6263,
      "factory": 6264,
      "Regional": 6265,
      "strike": 6266,
      "Fa": 6267,
      "Video": 6268,
      "Files": 6269,
      "Card": 6270,
      "kno": 6271,
      "bearing": 6272,
      "thousands": 6273,
      "Hyder": 6274,
      "configuration": 6275,
      "Article": 6276,
      "mary": 6277,
      "substance": 6278,
      "finally": 6279,
      "Judge": 6280,
      "branches": 6281,
      "Jag": 6282,
      "dol": 6283,
      "Member": 6284,
      "Sard": 6285,
      "font": 6286,
      "loved": 6287,
      "adjust": 6288,
      "Middle": 6289,
      "sad": 6290,
      "rot": 6291,
      "taining": 6292,
      "dent": 6293,
      "links": 6294,
      "districts": 6295,
      "Jaw": 6296,
      "peoples": 6297,
      "mense": 6298,
      "Gov": 6299,
      "Kab": 6300,
      "Nare": 6301,
      "zero": 6302,
      "ato": 6303,
      "sets": 6304,
      "ques": 6305,
      "anta": 6306,
      "Swami": 6307,
      "Bangl": 6308,
      "thes": 6309,
      "idol": 6310,
      "creative": 6311,
      "Tele": 6312,
      "atre": 6313,
      "turning": 6314,
      "2010": 6315,
      "flowers": 6316,
      "Small": 6317,
      "enhance": 6318,
      "alleg": 6319,
      "squared": 6320,
      "Ja": 6321,
      "kata": 6322,
      "zy": 6323,
      "calling": 6324,
      "Subscri": 6325,
      "Signs": 6326,
      "Bel": 6327,
      "elections": 6328,
      "categ": 6329,
      "hrs": 6330,
      "apped": 6331,
      "eco": 6332,
      "oul": 6333,
      "stick": 6334,
      "ette": 6335,
      "backs": 6336,
      "committee": 6337,
      "costs": 6338,
      "Independence": 6339,
      "prime": 6340,
      "ligh": 6341,
      "employed": 6342,
      "magn": 6343,
      "Emplo": 6344,
      "Agriculture": 6345,
      "Ve": 6346,
      "grass": 6347,
      "affl": 6348,
      "Univers": 6349,
      "mally": 6350,
      "pip": 6351,
      "Rural": 6352,
      "ture": 6353,
      "comment": 6354,
      "proportion": 6355,
      "felicit": 6356,
      "border": 6357,
      "hang": 6358,
      "iso": 6359,
      "brief": 6360,
      "Choose": 6361,
      "Bur": 6362,
      "posite": 6363,
      "offices": 6364,
      "fertil": 6365,
      "Adv": 6366,
      "household": 6367,
      "vereign": 6368,
      "analysis": 6369,
      "billion": 6370,
      "Close": 6371,
      "Pac": 6372,
      "ona": 6373,
      "enance": 6374,
      "absor": 6375,
      "identity": 6376,
      "anya": 6377,
      "eving": 6378,
      "ritual": 6379,
      "thereafter": 6380,
      "platform": 6381,
      "IG": 6382,
      "acting": 6383,
      "Read": 6384,
      "leads": 6385,
      "Az": 6386,
      "PC": 6387,
      "pregn": 6388,
      "Compan": 6389,
      "Similar": 6390,
      "membrance": 6391,
      "theory": 6392,
      "whenever": 6393,
      "advanced": 6394,
      "Build": 6395,
      "End": 6396,
      "Sud": 6397,
      "aband": 6398,
      "markets": 6399,
      "Chinese": 6400,
      "Mas": 6401,
      "aram": 6402,
      "iger": 6403,
      "clim": 6404,
      "....": 6405,
      "properly": 6406,
      "Assessing": 6407,
      "icip": 6408,
      "disbelief": 6409,
      "Mult": 6410,
      "Nature": 6411,
      "cure": 6412,
      "gency": 6413,
      "oo": 6414,
      "shel": 6415,
      "uous": 6416,
      "roots": 6417,
      "roof": 6418,
      "avan": 6419,
      "ansion": 6420,
      "Divine": 6421,
      ".%": 6422,
      "graphical": 6423,
      "Cy": 6424,
      "gi": 6425,
      "ker": 6426,
      "stones": 6427,
      "recognized": 6428,
      "occurred": 6429,
      "Ha": 6430,
      "Mis": 6431,
      "Force": 6432,
      "fourth": 6433,
      "Certain": 6434,
      "forgot": 6435,
      "Believers": 6436,
      "Vice": 6437,
      "rum": 6438,
      "informed": 6439,
      "whomever": 6440,
      "runs": 6441,
      "possession": 6442,
      "Tell": 6443,
      "TE": 6444,
      "tomorrow": 6445,
      "fifty": 6446,
      "Joint": 6447,
      "Cir": 6448,
      "pic": 6449,
      "angle": 6450,
      "fulfilled": 6451,
      "processes": 6452,
      "functioning": 6453,
      "Tool": 6454,
      "judgment": 6455,
      "definite": 6456,
      "Speaker": 6457,
      "HA": 6458,
      "rath": 6459,
      "bha": 6460,
      "descend": 6461,
      "seeds": 6462,
      "Principal": 6463,
      "Bod": 6464,
      "Ye": 6465,
      "ald": 6466,
      "weth": 6467,
      "acing": 6468,
      "Never": 6469,
      "iy": 6470,
      "receipt": 6471,
      "penalty": 6472,
      "Dur": 6473,
      "ugu": 6474,
      "uta": 6475,
      "susp": 6476,
      "iveness": 6477,
      "2020": 6478,
      "mostly": 6479,
      "Settings": 6480,
      "34": 6481,
      "pad": 6482,
      "usted": 6483,
      "Plug": 6484,
      "pride": 6485,
      "sweet": 6486,
      "tel": 6487,
      "Oper": 6488,
      "rout": 6489,
      "intim": 6490,
      "seemed": 6491,
      "habhar": 6492,
      "YS": 6493,
      "Calendar": 6494,
      "center": 6495,
      "arrived": 6496,
      "Pacific": 6497,
      "Kor": 6498,
      "undertaken": 6499,
      "movements": 6500,
      "accused": 6501,
      "horse": 6502,
      "115": 6503,
      "Sof": 6504,
      "eli": 6505,
      "Art": 6506,
      "Look": 6507,
      "applicable": 6508,
      "ranath": 6509,
      "apostles": 6510,
      "Aware": 6511,
      "Ele": 6512,
      "hall": 6513,
      "uity": 6514,
      "outer": 6515,
      "holy": 6516,
      "atio": 6517,
      "surance": 6518,
      "properties": 6519,
      "bottom": 6520,
      "matic": 6521,
      "pane": 6522,
      "environmental": 6523,
      "fearing": 6524,
      "poets": 6525,
      "AC": 6526,
      "loans": 6527,
      "filter": 6528,
      "humanity": 6529,
      "absence": 6530,
      "Bangladesh": 6531,
      "Mak": 6532,
      "hill": 6533,
      "mend": 6534,
      "stall": 6535,
      "plans": 6536,
      "Institut": 6537,
      "keys": 6538,
      "mandap": 6539,
      "Limited": 6540,
      "Glo": 6541,
      "pul": 6542,
      "onto": 6543,
      "behold": 6544,
      "guaran": 6545,
      "offers": 6546,
      "displayed": 6547,
      "1956": 6548,
      "hypocrites": 6549,
      "liquid": 6550,
      "rical": 6551,
      "ascri": 6552,
      "organizations": 6553,
      "Lot": 6554,
      "Options": 6555,
      "sorrow": 6556,
      "Deputy": 6557,
      "category": 6558,
      "stu": 6559,
      "asking": 6560,
      "Judgment": 6561,
      "employee": 6562,
      "girls": 6563,
      "French": 6564,
      "Lal": 6565,
      "tab": 6566,
      "tools": 6567,
      "composed": 6568,
      "quiry": 6569,
      "Hyderabad": 6570,
      "stret": 6571,
      "immense": 6572,
      "City": 6573,
      "DU": 6574,
      "TER": 6575,
      "aside": 6576,
      "forced": 6577,
      "deity": 6578,
      "arrang": 6579,
      "expenses": 6580,
      "Server": 6581,
      "hurt": 6582,
      "ander": 6583,
      "feature": 6584,
      "wash": 6585,
      "journal": 6586,
      "prising": 6587,
      "compensation": 6588,
      "temperature": 6589,
      "Best": 6590,
      "vac": 6591,
      "colle": 6592,
      "reveal": 6593,
      "oom": 6594,
      "formal": 6595,
      "differences": 6596,
      "satisfied": 6597,
      "Kh": 6598,
      "ivate": 6599,
      "sustenance": 6600,
      "Awards": 6601,
      "iour": 6602,
      "grieve": 6603,
      "expert": 6604,
      "Keep": 6605,
      "emotion": 6606,
      "izes": 6607,
      "Execut": 6608,
      "governments": 6609,
      "phets": 6610,
      "walls": 6611,
      "Food": 6612,
      "Scheduled": 6613,
      "losers": 6614,
      "Apost": 6615,
      "Forest": 6616,
      "pound": 6617,
      "ares": 6618,
      "clar": 6619,
      "Trade": 6620,
      "Link": 6621,
      "Op": 6622,
      "represents": 6623,
      "Prem": 6624,
      "sexual": 6625,
      "Museum": 6626,
      "simply": 6627,
      "pension": 6628,
      "allowance": 6629,
      "entirely": 6630,
      "ename": 6631,
      "worlds": 6632,
      "humili": 6633,
      "extremely": 6634,
      "Mat": 6635,
      "eper": 6636,
      "outstanding": 6637,
      "coast": 6638,
      "proofs": 6639,
      "oked": 6640,
      "ESS": 6641,
      "apostle": 6642,
      "sculpture": 6643,
      "bath": 6644,
      "volunt": 6645,
      "judicial": 6646,
      "apur": 6647,
      "starting": 6648,
      "equity": 6649,
      "regarded": 6650,
      "belonging": 6651,
      "37": 6652,
      "creatures": 6653,
      "commission": 6654,
      "colon": 6655,
      "deeply": 6656,
      "Kam": 6657,
      "urved": 6658,
      "illust": 6659,
      "dynam": 6660,
      "Dar": 6661,
      "shar": 6662,
      "directed": 6663,
      "equally": 6664,
      "chargeable": 6665,
      "Kolkata": 6666,
      "automatically": 6667,
      "Gh": 6668,
      "Hand": 6669,
      "fuel": 6670,
      "digital": 6671,
      "deleted": 6672,
      "Get": 6673,
      "Narendra": 6674,
      "55": 6675,
      "narrow": 6676,
      "sake": 6677,
      "perce": 6678,
      "instructions": 6679,
      "radio": 6680,
      "Nations": 6681,
      "Mughal": 6682,
      "speaking": 6683,
      "invited": 6684,
      "wrongdoers": 6685,
      "tourism": 6686,
      "bridge": 6687,
      "arbit": 6688,
      "frag": 6689,
      "positions": 6690,
      "Except": 6691,
      "Mahabhar": 6692,
      "housing": 6693,
      "posing": 6694,
      "refused": 6695,
      "explained": 6696,
      "Tar": 6697,
      "nan": 6698,
      "initiated": 6699,
      "Economic": 6700,
      "Association": 6701,
      "opposition": 6702,
      "Pras": 6703,
      "sister": 6704,
      "strive": 6705,
      "spoken": 6706,
      "proposal": 6707,
      "distinguished": 6708,
      "sustainable": 6709,
      "fet": 6710,
      "Profess": 6711,
      "Further": 6712,
      "onds": 6713,
      "legs": 6714,
      "Support": 6715,
      "\\\\": 6716,
      "shaped": 6717,
      "Urdu": 6718,
      "architecture": 6719,
      "twelve": 6720,
      "Line": 6721,
      "UK": 6722,
      "err": 6723,
      "ouched": 6724,
      "Industry": 6725,
      "customer": 6726,
      "Related": 6727,
      "settlement": 6728,
      "Common": 6729,
      "phen": 6730,
      "founded": 6731,
      "pairs": 6732,
      "cession": 6733,
      "wherever": 6734,
      "bene": 6735,
      "towns": 6736,
      "transactions": 6737,
      "wicked": 6738,
      "prostrate": 6739,
      "update": 6740,
      "holder": 6741,
      "Apostle": 6742,
      "doct": 6743,
      "writers": 6744,
      "Light": 6745,
      "lin": 6746,
      "mous": 6747,
      "neck": 6748,
      "improvement": 6749,
      "Year": 6750,
      "vig": 6751,
      "rier": 6752,
      "quickly": 6753,
      "NU": 6754,
      "anas": 6755,
      "tood": 6756,
      "dealing": 6757,
      "pieces": 6758,
      "completion": 6759,
      "Sardar": 6760,
      "bones": 6761,
      "tribal": 6762,
      "Note": 6763,
      "linked": 6764,
      "bat": 6765,
      "clay": 6766,
      "deser": 6767,
      "rub": 6768,
      "trend": 6769,
      "Persian": 6770,
      "Schedule": 6771,
      ",'": 6772,
      "fought": 6773,
      "pand": 6774,
      "club": 6775,
      "embr": 6776,
      "189": 6777,
      "Garden": 6778,
      "cool": 6779,
      "specify": 6780,
      "Something": 6781,
      "Turk": 6782,
      "promoting": 6783,
      "reasonable": 6784,
      "sincere": 6785,
      "Through": 6786,
      "Document": 6787,
      "understood": 6788,
      "liar": 6789,
      "servant": 6790,
      "drama": 6791,
      "steel": 6792,
      "Green": 6793,
      "theirs": 6794,
      "Jawahar": 6795,
      "CR": 6796,
      "Lic": 6797,
      "withstanding": 6798,
      "grain": 6799,
      "rendered": 6800,
      "desktop": 6801,
      "railway": 6802,
      "Follow": 6803,
      "Later": 6804,
      "Comput": 6805,
      "revenue": 6806,
      "beneath": 6807,
      "invalid": 6808,
      "admitted": 6809,
      "remaining": 6810,
      "Province": 6811,
      "recited": 6812,
      "behaviour": 6813,
      "whe": 6814,
      "ergy": 6815,
      "cha": 6816,
      "council": 6817,
      "Fort": 6818,
      "availability": 6819,
      "career": 6820,
      "Sikh": 6821,
      "Ef": 6822,
      "leaving": 6823,
      "Cro": 6824,
      "Tha": 6825,
      "Vol": 6826,
      "ena": 6827,
      "counting": 6828,
      "interested": 6829,
      "KDE": 6830,
      "retain": 6831,
      "plom": 6832,
      "glory": 6833,
      "polytheists": 6834,
      "pious": 6835,
      "Shiva": 6836,
      "roads": 6837,
      "personality": 6838,
      "deliber": 6839,
      "Christians": 6840,
      "Status": 6841,
      "zz": 6842,
      "answered": 6843,
      "happens": 6844,
      "Cred": 6845,
      "Dig": 6846,
      "David": 6847,
      "Mac": 6848,
      "respectively": 6849,
      "eries": 6850,
      "exports": 6851,
      "Insurance": 6852,
      "Israeli": 6853,
      "rising": 6854,
      "convers": 6855,
      "Cam": 6856,
      "kin": 6857,
      "secre": 6858,
      "Full": 6859,
      "Noble": 6860,
      "computing": 6861,
      "Madhya": 6862,
      "300": 6863,
      "ola": 6864,
      "intended": 6865,
      "Dec": 6866,
      "Himself": 6867,
      "ALL": 6868,
      "judgement": 6869,
      "corporate": 6870,
      "Run": 6871,
      "agers": 6872,
      "pel": 6873,
      "Innov": 6874,
      "Unit": 6875,
      "recite": 6876,
      "soldiers": 6877,
      "trouble": 6878,
      "renew": 6879,
      "survey": 6880,
      "Gold": 6881,
      "IB": 6882,
      "desert": 6883,
      "Editor": 6884,
      "split": 6885,
      "Award": 6886,
      "ushed": 6887,
      "crisis": 6888,
      "enous": 6889,
      "edia": 6890,
      "amoun": 6891,
      "avi": 6892,
      "loading": 6893,
      "immediate": 6894,
      "Babu": 6895,
      "atar": 6896,
      "tea": 6897,
      "otic": 6898,
      "revelation": 6899,
      "quiet": 6900,
      "alam": 6901,
      "chain": 6902,
      "contributions": 6903,
      "recognition": 6904,
      "SO": 6905,
      "”,": 6906,
      "abor": 6907,
      "asty": 6908,
      "offering": 6909,
      "Ask": 6910,
      "Capital": 6911,
      "dict": 6912,
      "raj": 6913,
      "Shall": 6914,
      "driven": 6915,
      "Password": 6916,
      "slo": 6917,
      "tissue": 6918,
      "”;": 6919,
      "accompl": 6920,
      "Access": 6921,
      "layer": 6922,
      "arrangement": 6923,
      "tongue": 6924,
      "overall": 6925,
      "counsel": 6926,
      "twice": 6927,
      "contribute": 6928,
      "drinking": 6929,
      "None": 6930,
      "dates": 6931,
      "nom": 6932,
      "contemporary": 6933,
      "camp": 6934,
      "drown": 6935,
      "Pad": 6936,
      "ork": 6937,
      "sem": 6938,
      "royal": 6939,
      "harvest": 6940,
      "depends": 6941,
      "subscribe": 6942,
      "Vir": 6943,
      "Pos": 6944,
      "Buddhist": 6945,
      "experiment": 6946,
      "numerous": 6947,
      "demonstr": 6948,
      "diag": 6949,
      "neighbour": 6950,
      "Lt": 6951,
      "index": 6952,
      "charity": 6953,
      "chron": 6954,
      "detailed": 6955,
      "gradu": 6956,
      "clouds": 6957,
      "AY": 6958,
      "Pet": 6959,
      "Rab": 6960,
      "rend": 6961,
      "allows": 6962,
      "Spec": 6963,
      "stayed": 6964,
      "hibition": 6965,
      "facilitate": 6966,
      "couple": 6967,
      ")!": 6968,
      "Table": 6969,
      "toler": 6970,
      "continues": 6971,
      "equality": 6972,
      "flood": 6973,
      "Dom": 6974,
      "Whatever": 6975,
      "guardian": 6976,
      "Local": 6977,
      "IME": 6978,
      "arising": 6979,
      "hast": 6980,
      "collected": 6981,
      "aspir": 6982,
      "intelligence": 6983,
      "38": 6984,
      "repeated": 6985,
      "affair": 6986,
      "Tourism": 6987,
      "Land": 6988,
      "ius": 6989,
      "sav": 6990,
      "appell": 6991,
      "ISO": 6992,
      "firmly": 6993,
      "sisters": 6994,
      "persist": 6995,
      "integrated": 6996,
      "chair": 6997,
      "evident": 6998,
      "buf": 6999,
      "solutions": 7000,
      "trading": 7001,
      "Disable": 7002,
      "naught": 7003,
      "bered": 7004,
      "courses": 7005,
      "communal": 7006,
      "appearance": 7007,
      "consumer": 7008,
      "desired": 7009,
      "facing": 7010,
      "palm": 7011,
      "valuable": 7012,
      "laugh": 7013,
      "mits": 7014,
      "rer": 7015,
      "alive": 7016,
      "impart": 7017,
      "Liter": 7018,
      "Rece": 7019,
      "hardly": 7020,
      "derived": 7021,
      "audit": 7022,
      "celebrated": 7023,
      "gift": 7024,
      "mel": 7025,
      "Manager": 7026,
      "Accounts": 7027,
      "apparent": 7028,
      "mine": 7029,
      "inity": 7030,
      "Form": 7031,
      "conceal": 7032,
      "DAY": 7033,
      "Windows": 7034,
      "slight": 7035,
      "stake": 7036,
      "urally": 7037,
      "ivals": 7038,
      "udes": 7039,
      "1947": 7040,
      "component": 7041,
      "gorith": 7042,
      "GP": 7043,
      "tag": 7044,
      "religions": 7045,
      "breath": 7046,
      "satisfaction": 7047,
      "crimin": 7048,
      "comprehensive": 7049,
      "Est": 7050,
      "SC": 7051,
      "facult": 7052,
      "framework": 7053,
      "Test": 7054,
      "preach": 7055,
      "struck": 7056,
      "filed": 7057,
      "aneous": 7058,
      "Bharati": 7059,
      "Yu": 7060,
      "worshipped": 7061,
      "flower": 7062,
      "Afghanistan": 7063,
      "BE": 7064,
      "Due": 7065,
      "UG": 7066,
      "thread": 7067,
      "diverse": 7068,
      "obedience": 7069,
      "eggs": 7070,
      "database": 7071,
      "prem": 7072,
      "span": 7073,
      "Comple": 7074,
      "acquisition": 7075,
      "thetic": 7076,
      "traf": 7077,
      "Ans": 7078,
      "solve": 7079,
      "buildings": 7080,
      "guidelines": 7081,
      "Friends": 7082,
      "specially": 7083,
      "anka": 7084,
      "Army": 7085,
      "traditions": 7086,
      "difficulty": 7087,
      "constructed": 7088,
      "Sem": 7089,
      "miner": 7090,
      "Foundation": 7091,
      "Far": 7092,
      "jinn": 7093,
      "crores": 7094,
      "Acade": 7095,
      "ky": 7096,
      "pion": 7097,
      "believer": 7098,
      "ensity": 7099,
      "spite": 7100,
      "grees": 7101,
      "floor": 7102,
      "mixed": 7103,
      "shed": 7104,
      "overcome": 7105,
      "observe": 7106,
      "Being": 7107,
      "suggested": 7108,
      "Ach": 7109,
      "Nir": 7110,
      "aded": 7111,
      "disabled": 7112,
      "panel": 7113,
      "graphic": 7114,
      "Dal": 7115,
      "Jain": 7116,
      "Mount": 7117,
      "efficiency": 7118,
      "estimated": 7119,
      "NATION": 7120,
      "nav": 7121,
      "customers": 7122,
      "improving": 7123,
      "intention": 7124,
      "Global": 7125,
      "negot": 7126,
      "preferred": 7127,
      "harmony": 7128,
      "shadow": 7129,
      "forests": 7130,
      "Annual": 7131,
      "victim": 7132,
      "Palestinian": 7133,
      "etic": 7134,
      "meat": 7135,
      "Comment": 7136,
      "achievement": 7137,
      "strategy": 7138,
      "Energy": 7139,
      "enjoyment": 7140,
      "fle": 7141,
      "thick": 7142,
      "iel": 7143,
      "Commer": 7144,
      "worldly": 7145,
      "ART": 7146,
      "judges": 7147,
      "Saty": 7148,
      "discussed": 7149,
      "convention": 7150,
      "Size": 7151,
      "busy": 7152,
      "criminal": 7153,
      "Tir": 7154,
      "cts": 7155,
      "unch": 7156,
      "grew": 7157,
      "expansion": 7158,
      "begins": 7159,
      "MSME": 7160,
      "pillars": 7161,
      "Qual": 7162,
      "fulfill": 7163,
      "silver": 7164,
      "Pandit": 7165,
      "vit": 7166,
      "wound": 7167,
      "xim": 7168,
      "tock": 7169,
      "idols": 7170,
      "repentance": 7171,
      "Houses": 7172,
      "Nan": 7173,
      "orial": 7174,
      "aggre": 7175,
      "hibit": 7176,
      "fined": 7177,
      "distur": 7178,
      "HTML": 7179,
      "advised": 7180,
      "brahim": 7181,
      "NE": 7182,
      "vary": 7183,
      "agent": 7184,
      "considerable": 7185,
      "violent": 7186,
      "amalgam": 7187,
      "traffic": 7188,
      "65": 7189,
      "fron": 7190,
      "upto": 7191,
      "affection": 7192,
      "cricket": 7193,
      "millions": 7194,
      "Ms": 7195,
      "stal": 7196,
      "Gree": 7197,
      "ciences": 7198,
      "listed": 7199,
      "investments": 7200,
      "Lat": 7201,
      "Source": 7202,
      "reput": 7203,
      "ops": 7204,
      "telephone": 7205,
      "consumption": 7206,
      "Knowledge": 7207,
      "nutrit": 7208,
      "imperial": 7209,
      "rd": 7210,
      "chant": 7211,
      "permitted": 7212,
      "porter": 7213,
      "warned": 7214,
      "plaint": 7215,
      "Subject": 7216,
      "39": 7217,
      "arh": 7218,
      "amm": 7219,
      "Bio": 7220,
      "Email": 7221,
      "yellow": 7222,
      "allot": 7223,
      "ctive": 7224,
      "impossible": 7225,
      "regul": 7226,
      "regulations": 7227,
      "covers": 7228,
      "doub": 7229,
      "encry": 7230,
      "Integr": 7231,
      "Woe": 7232,
      "Lef": 7233,
      "masses": 7234,
      "rejo": 7235,
      "icing": 7236,
      "stages": 7237,
      "preview": 7238,
      "curse": 7239,
      "Germany": 7240,
      "street": 7241,
      "inspiration": 7242,
      "57": 7243,
      "oman": 7244,
      "improved": 7245,
      "cycle": 7246,
      "1992": 7247,
      "Earth": 7248,
      "Bet": 7249,
      "za": 7250,
      "doom": 7251,
      "mirac": 7252,
      "Jay": 7253,
      "NPS": 7254,
      "ordered": 7255,
      "windows": 7256,
      "lights": 7257,
      "felicitations": 7258,
      "Ibrahim": 7259,
      "Ori": 7260,
      "athe": 7261,
      "irit": 7262,
      "scen": 7263,
      "offence": 7264,
      "vessel": 7265,
      "talking": 7266,
      "188": 7267,
      "decree": 7268,
      "obedient": 7269,
      "convert": 7270,
      "Asian": 7271,
      "meetings": 7272,
      "garh": 7273,
      "lev": 7274,
      "Mode": 7275,
      "perior": 7276,
      "attachment": 7277,
      "Filter": 7278,
      "accurate": 7279,
      "MO": 7280,
      "Tab": 7281,
      "educated": 7282,
      "controlled": 7283,
      "fortune": 7284,
      "steadfast": 7285,
      "mn": 7286,
      "miss": 7287,
      "owned": 7288,
      "mailing": 7289,
      "Road": 7290,
      "Committees": 7291,
      "deposits": 7292,
      "Credit": 7293,
      "pick": 7294,
      "aming": 7295,
      "identify": 7296,
      "normally": 7297,
      "Online": 7298,
      "farmer": 7299,
      "faced": 7300,
      "Similarly": 7301,
      "Left": 7302,
      "HER": 7303,
      "apo": 7304,
      "gro": 7305,
      "etary": 7306,
      "excellence": 7307,
      "Tal": 7308,
      "budget": 7309,
      "commence": 7310,
      "eastern": 7311,
      "emphasis": 7312,
      "FC": 7313,
      "Master": 7314,
      "noble": 7315,
      "helper": 7316,
      "electronic": 7317,
      "Gupta": 7318,
      "Sr": 7319,
      "pical": 7320,
      "securities": 7321,
      "inder": 7322,
      "empower": 7323,
      "ashing": 7324,
      "Himachal": 7325,
      "continuous": 7326,
      "ias": 7327,
      "ratio": 7328,
      "atri": 7329,
      "opal": 7330,
      "gry": 7331,
      "organisations": 7332,
      "Chait": 7333,
      "loaded": 7334,
      "Custom": 7335,
      "acid": 7336,
      "discharge": 7337,
      "Mono": 7338,
      "incurred": 7339,
      "crime": 7340,
      "Police": 7341,
      "Kingdom": 7342,
      "hills": 7343,
      "pher": 7344,
      "inhabit": 7345,
      "quit": 7346,
      "iliar": 7347,
      "Screen": 7348,
      "jay": 7349,
      "conservation": 7350,
      "propag": 7351,
      "finished": 7352,
      "socio": 7353,
      "respite": 7354,
      "1998": 7355,
      "Temple": 7356,
      "Four": 7357,
      "gence": 7358,
      "preh": 7359,
      "Shak": 7360,
      "representative": 7361,
      "demands": 7362,
      "liberal": 7363,
      "Audio": 7364,
      "Jawaharlal": 7365,
      "Sab": 7366,
      "planned": 7367,
      "bedkar": 7368,
      "Ru": 7369,
      "remembrance": 7370,
      "Bring": 7371,
      "starts": 7372,
      "quantity": 7373,
      "47": 7374,
      "ny": 7375,
      "drag": 7376,
      "stored": 7377,
      "42": 7378,
      "Lu": 7379,
      "iciary": 7380,
      "Ambedkar": 7381,
      "irrigation": 7382,
      "tical": 7383,
      "haz": 7384,
      "interface": 7385,
      "faithless": 7386,
      "Script": 7387,
      "interpretation": 7388,
      "Dra": 7389,
      "MM": 7390,
      "Mil": 7391,
      "Photo": 7392,
      "signature": 7393,
      "distributed": 7394,
      "baby": 7395,
      "assum": 7396,
      "fores": 7397,
      "Guide": 7398,
      "Perhaps": 7399,
      "sites": 7400,
      "El": 7401,
      "touched": 7402,
      "prospect": 7403,
      "complaint": 7404,
      "flat": 7405,
      "claims": 7406,
      "rulers": 7407,
      "Dut": 7408,
      "Leve": 7409,
      "march": 7410,
      "edit": 7411,
      "lihood": 7412,
      "entertain": 7413,
      "metal": 7414,
      "trained": 7415,
      "Ahmed": 7416,
      "theatre": 7417,
      "encing": 7418,
      "Ext": 7419,
      "remarkable": 7420,
      "icipal": 7421,
      "Cabinet": 7422,
      "ds": 7423,
      "oll": 7424,
      "izer": 7425,
      "ensuring": 7426,
      "Democr": 7427,
      "camel": 7428,
      "whomsoever": 7429,
      "asy": 7430,
      "goals": 7431,
      "transmission": 7432,
      "prepare": 7433,
      "Agricultural": 7434,
      "vain": 7435,
      "ureau": 7436,
      "emb": 7437,
      "White": 7438,
      "scene": 7439,
      "printed": 7440,
      "chapter": 7441,
      "ocean": 7442,
      "itya": 7443,
      "valley": 7444,
      "transform": 7445,
      "Issu": 7446,
      "Lad": 7447,
      "mort": 7448,
      "college": 7449,
      "III": 7450,
      "Companies": 7451,
      "clust": 7452,
      "parame": 7453,
      "involve": 7454,
      "determination": 7455,
      "beat": 7456,
      "ardon": 7457,
      "elim": 7458,
      "vised": 7459,
      "cried": 7460,
      "productivity": 7461,
      "Banks": 7462,
      "diversity": 7463,
      "vacc": 7464,
      "superior": 7465,
      "difficulties": 7466,
      "Panchay": 7467,
      "voluntary": 7468,
      "park": 7469,
      "notified": 7470,
      "Ramayana": 7471,
      "requested": 7472,
      "categories": 7473,
      "IA": 7474,
      "inno": 7475,
      "personnel": 7476,
      "presentation": 7477,
      "prompt": 7478,
      "recognize": 7479,
      "dawn": 7480,
      "cher": 7481,
      "iri": 7482,
      "Vedic": 7483,
      "Cell": 7484,
      "dan": 7485,
      "infection": 7486,
      "imony": 7487,
      "saving": 7488,
      "ips": 7489,
      "invent": 7490,
      "axis": 7491,
      "divers": 7492,
      "Exalted": 7493,
      "Guard": 7494,
      "cotton": 7495,
      "directions": 7496,
      "alter": 7497,
      "oute": 7498,
      "competition": 7499,
      "attended": 7500,
      "familiar": 7501,
      "practical": 7502,
      "righteousness": 7503,
      "Mor": 7504,
      "bacter": 7505,
      "rhy": 7506,
      "liability": 7507,
      "companied": 7508,
      "assembly": 7509,
      "virtue": 7510,
      "authorised": 7511,
      "quarter": 7512,
      "BO": 7513,
      "gall": 7514,
      "ishment": 7515,
      "Thank": 7516,
      "herself": 7517,
      "relatives": 7518,
      "finds": 7519,
      "executive": 7520,
      "Software": 7521,
      "anath": 7522,
      "aph": 7523,
      "player": 7524,
      "enterprise": 7525,
      "universe": 7526,
      "66": 7527,
      "TV": 7528,
      "gal": 7529,
      "degrees": 7530,
      "ictions": 7531,
      "employer": 7532,
      "removal": 7533,
      "jobs": 7534,
      "Prasad": 7535,
      "injustice": 7536,
      "usal": 7537,
      "writings": 7538,
      "sheet": 7539,
      "plications": 7540,
      "participate": 7541,
      "mechanism": 7542,
      "izontal": 7543,
      "Wid": 7544,
      "cement": 7545,
      "illa": 7546,
      "optim": 7547,
      "addresses": 7548,
      "flowing": 7549,
      "discussions": 7550,
      "competent": 7551,
      "Russia": 7552,
      "Nam": 7553,
      "Sil": 7554,
      "Var": 7555,
      "ental": 7556,
      "carbon": 7557,
      "qualities": 7558,
      "Raja": 7559,
      "terrorist": 7560,
      "venture": 7561,
      "quarters": 7562,
      "symp": 7563,
      "eternal": 7564,
      "jail": 7565,
      "headed": 7566,
      "Parliamentary": 7567,
      "occurs": 7568,
      "strengthening": 7569,
      "Ayurved": 7570,
      "haply": 7571,
      "realize": 7572,
      "accum": 7573,
      "Territ": 7574,
      "vegetables": 7575,
      "Australia": 7576,
      "viz": 7577,
      "stic": 7578,
      "Spirit": 7579,
      "dollar": 7580,
      "pig": 7581,
      "accommod": 7582,
      "gradually": 7583,
      "Brahmin": 7584,
      "Certainly": 7585,
      "Vers": 7586,
      "ked": 7587,
      "tender": 7588,
      "palace": 7589,
      "historic": 7590,
      "Fam": 7591,
      "thesis": 7592,
      "aron": 7593,
      "tube": 7594,
      "?'": 7595,
      "IIT": 7596,
      "’.": 7597,
      "oration": 7598,
      "pled": 7599,
      "trium": 7600,
      "domain": 7601,
      "incent": 7602,
      "insul": 7603,
      "condem": 7604,
      "usage": 7605,
      "protocol": 7606,
      "producing": 7607,
      "breasts": 7608,
      "suffered": 7609,
      "departments": 7610,
      "unseen": 7611,
      "needy": 7612,
      "prominent": 7613,
      "devi": 7614,
      "devoted": 7615,
      "acceptance": 7616,
      "equals": 7617,
      "ego": 7618,
      "selling": 7619,
      "uru": 7620,
      "Forward": 7621,
      "Madras": 7622,
      "significance": 7623,
      "Plugin": 7624,
      "Way": 7625,
      "greatly": 7626,
      "termine": 7627,
      "shrine": 7628,
      "abandon": 7629,
      "duration": 7630,
      "waters": 7631,
      "differ": 7632,
      "corner": 7633,
      "News": 7634,
      "Burn": 7635,
      "Mir": 7636,
      "Object": 7637,
      "wholly": 7638,
      "papers": 7639,
      "anniversary": 7640,
      "equival": 7641,
      "testing": 7642,
      "pping": 7643,
      "cured": 7644,
      "achievements": 7645,
      "stro": 7646,
      "lod": 7647,
      "irs": 7648,
      "accompanied": 7649,
      "aked": 7650,
      "widely": 7651,
      "FA": 7652,
      "mp": 7653,
      "boys": 7654,
      "Record": 7655,
      "stopped": 7656,
      "increases": 7657,
      "distress": 7658,
      "Location": 7659,
      "structures": 7660,
      "TR": 7661,
      "liars": 7662,
      "umes": 7663,
      "consol": 7664,
      "advoc": 7665,
      "divide": 7666,
      "effectively": 7667,
      "rig": 7668,
      "Super": 7669,
      "Fac": 7670,
      "ito": 7671,
      "atell": 7672,
      "Indo": 7673,
      "aved": 7674,
      "programs": 7675,
      "southern": 7676,
      "Attach": 7677,
      "resolve": 7678,
      "streams": 7679,
      "awarded": 7680,
      "arrangements": 7681,
      "Apart": 7682,
      "Give": 7683,
      "ki": 7684,
      "scre": 7685,
      "forty": 7686,
      "traction": 7687,
      "prostr": 7688,
      "beside": 7689,
      "contributed": 7690,
      "fifteen": 7691,
      "oriented": 7692,
      "Details": 7693,
      "Action": 7694,
      "Feder": 7695,
      "fers": 7696,
      "abol": 7697,
      "sovereign": 7698,
      "devices": 7699,
      "drawing": 7700,
      "-,": 7701,
      "delic": 7702,
      "yours": 7703,
      "Sector": 7704,
      "reader": 7705,
      "forwarded": 7706,
      "incorpor": 7707,
      "deities": 7708,
      "mood": 7709,
      "draft": 7710,
      "Mercy": 7711,
      "negoti": 7712,
      "Sess": 7713,
      "tot": 7714,
      "stray": 7715,
      "humble": 7716,
      "gery": 7717,
      "convin": 7718,
      "inoy": 7719,
      "Sad": 7720,
      "York": 7721,
      "aking": 7722,
      "strange": 7723,
      "150": 7724,
      "subjected": 7725,
      "uddin": 7726,
      "strategic": 7727,
      "Dhar": 7728,
      "Wik": 7729,
      "drum": 7730,
      "END": 7731,
      "package": 7732,
      "recommendations": 7733,
      "catch": 7734,
      "kg": 7735,
      "pace": 7736,
      "bears": 7737,
      "urge": 7738,
      "partition": 7739,
      "receiving": 7740,
      "mothers": 7741,
      "sculpt": 7742,
      "faculty": 7743,
      "Come": 7744,
      "Hari": 7745,
      "recovery": 7746,
      "orge": 7747,
      "astr": 7748,
      ").\"": 7749,
      "shops": 7750,
      "ignorance": 7751,
      "components": 7752,
      "46": 7753,
      "rebel": 7754,
      "determine": 7755,
      "nels": 7756,
      "ATE": 7757,
      "habad": 7758,
      "elephant": 7759,
      "weapons": 7760,
      "Ever": 7761,
      "liest": 7762,
      "mock": 7763,
      "investors": 7764,
      "ronics": 7765,
      "killing": 7766,
      "Universities": 7767,
      "Executive": 7768,
      "Ek": 7769,
      "Lanka": 7770,
      "deaf": 7771,
      "missing": 7772,
      "ITY": 7773,
      "azing": 7774,
      "mm": 7775,
      "icent": 7776,
      "lio": 7777,
      "paralle": 7778,
      "classical": 7779,
      "Bhut": 7780,
      "ceremony": 7781,
      "License": 7782,
      "Kir": 7783,
      "imposed": 7784,
      "advert": 7785,
      "proxy": 7786,
      "sentence": 7787,
      "operate": 7788,
      "Syn": 7789,
      "CRA": 7790,
      "nath": 7791,
      "recall": 7792,
      "advent": 7793,
      "chandra": 7794,
      "kil": 7795,
      "tank": 7796,
      "node": 7797,
      "peror": 7798,
      "ishes": 7799,
      "prefer": 7800,
      "hosts": 7801,
      "Protection": 7802,
      "phenomen": 7803,
      "Chaitanya": 7804,
      "Amb": 7805,
      "cards": 7806,
      "porters": 7807,
      "Short": 7808,
      "slave": 7809,
      "Medical": 7810,
      "monitoring": 7811,
      "stress": 7812,
      "aps": 7813,
      "themat": 7814,
      "eminent": 7815,
      "Shiv": 7816,
      "director": 7817,
      "admonition": 7818,
      "Binoy": 7819,
      "nasty": 7820,
      "enforce": 7821,
      "pron": 7822,
      "Orig": 7823,
      "profile": 7824,
      "ecution": 7825,
      "fasc": 7826,
      "scar": 7827,
      "France": 7828,
      "Major": 7829,
      "substantial": 7830,
      "arranged": 7831,
      "algorith": 7832,
      "indirect": 7833,
      "patri": 7834,
      "PD": 7835,
      "tack": 7836,
      "orous": 7837,
      "aggress": 7838,
      "creates": 7839,
      "cloth": 7840,
      "Sang": 7841,
      "aus": 7842,
      "een": 7843,
      "mud": 7844,
      "inations": 7845,
      "internet": 7846,
      "resulting": 7847,
      "productive": 7848,
      "gradation": 7849,
      "NAB": 7850,
      "Koran": 7851,
      "Level": 7852,
      "dwelling": 7853,
      "client": 7854,
      "BS": 7855,
      "combination": 7856,
      "xx": 7857,
      "itch": 7858,
      "permit": 7859,
      "strict": 7860,
      "Does": 7861,
      "Center": 7862,
      "Hence": 7863,
      "Luc": 7864,
      "Tham": 7865,
      "wrath": 7866,
      "infinite": 7867,
      "motor": 7868,
      "ordination": 7869,
      "mono": 7870,
      "diplom": 7871,
      "testimony": 7872,
      "musical": 7873,
      "innovative": 7874,
      "discipline": 7875,
      "browser": 7876,
      "Ary": 7877,
      "Rights": 7878,
      "seeks": 7879,
      "breast": 7880,
      "respondent": 7881,
      "finger": 7882,
      "triumph": 7883,
      "99": 7884,
      "Hor": 7885,
      "sharing": 7886,
      "Install": 7887,
      "grave": 7888,
      "submission": 7889,
      "telling": 7890,
      "slaves": 7891,
      "encouraged": 7892,
      "sacrific": 7893,
      "reckoning": 7894,
      "chrom": 7895,
      "uls": 7896,
      "shame": 7897,
      "reaching": 7898,
      "fluid": 7899,
      "emerging": 7900,
      "Por": 7901,
      "eigh": 7902,
      "worst": 7903,
      "Remo": 7904,
      "Nothing": 7905,
      "realise": 7906,
      "falling": 7907,
      "imagine": 7908,
      "noon": 7909,
      "Should": 7910,
      "phr": 7911,
      "lessons": 7912,
      "tribute": 7913,
      "League": 7914,
      "Sund": 7915,
      "TA": 7916,
      "ctural": 7917,
      "Chang": 7918,
      "generated": 7919,
      "prevail": 7920,
      "ignorant": 7921,
      "kal": 7922,
      "oram": 7923,
      "constitu": 7924,
      "ashion": 7925,
      "Selection": 7926,
      "northern": 7927,
      "Manipur": 7928,
      "posted": 7929,
      "divid": 7930,
      "sensitive": 7931,
      "exactly": 7932,
      "kid": 7933,
      "tremend": 7934,
      "finding": 7935,
      "seconds": 7936,
      "adopt": 7937,
      "alternative": 7938,
      "subsequent": 7939,
      "Said": 7940,
      "lesson": 7941,
      "salt": 7942,
      "1948": 7943,
      "Value": 7944,
      "distinction": 7945,
      "oaths": 7946,
      "mandapa": 7947,
      ")]": 7948,
      "54": 7949,
      "attered": 7950,
      "raising": 7951,
      "goddess": 7952,
      "pository": 7953,
      "constitutional": 7954,
      "Laughter": 7955,
      "Sin": 7956,
      "hil": 7957,
      "sevent": 7958,
      "pris": 7959,
      "otal": 7960,
      "minute": 7961,
      "adding": 7962,
      "rightly": 7963,
      "carefully": 7964,
      "fallen": 7965,
      "feeding": 7966,
      "constantly": 7967,
      "Nagar": 7968,
      "Oh": 7969,
      "deals": 7970,
      "aints": 7971,
      "biggest": 7972,
      "Governance": 7973,
      "tam": 7974,
      "liable": 7975,
      "hism": 7976,
      "earning": 7977,
      "Bag": 7978,
      "tho": 7979,
      "despite": 7980,
      "representatives": 7981,
      "Suf": 7982,
      "painting": 7983,
      "dreams": 7984,
      "Ti": 7985,
      "theism": 7986,
      "oring": 7987,
      "idences": 7988,
      "blank": 7989,
      "engage": 7990,
      "flour": 7991,
      "debate": 7992,
      "collaboration": 7993,
      "bid": 7994,
      "anx": 7995,
      "sinners": 7996,
      "Officers": 7997,
      "hen": 7998,
      "arest": 7999,
      "Legislature": 8000,
      "technological": 8001,
      "Mot": 8002,
      "eating": 8003,
      "pix": 8004,
      "pool": 8005,
      "ordained": 8006,
      "offspring": 8007,
      "visual": 8008,
      "divor": 8009,
      "regularly": 8010,
      "exceeding": 8011,
      "Interest": 8012,
      "entrusted": 8013,
      "knoweth": 8014,
      "Isa": 8015,
      "LA": 8016,
      "Tom": 8017,
      "Taj": 8018,
      "inspe": 8019,
      "alore": 8020,
      "iculture": 8021,
      "ayas": 8022,
      "Depart": 8023,
      "poetic": 8024,
      "represented": 8025,
      "legislation": 8026,
      "Swar": 8027,
      "Sita": 8028,
      "dull": 8029,
      "patron": 8030,
      "injury": 8031,
      "DUCT": 8032,
      "hence": 8033,
      "snow": 8034,
      "yester": 8035,
      "ungrateful": 8036,
      "alike": 8037,
      "terminal": 8038,
      "sales": 8039,
      "pictures": 8040,
      "cultivation": 8041,
      "Ltd": 8042,
      "NR": 8043,
      "bomb": 8044,
      "infect": 8045,
      "loves": 8046,
      "cert": 8047,
      "interval": 8048,
      "highlight": 8049,
      "Order": 8050,
      "1990": 8051,
      "Courts": 8052,
      "weakness": 8053,
      "depth": 8054,
      "consequences": 8055,
      "acceler": 8056,
      "Again": 8057,
      "Cit": 8058,
      "Hide": 8059,
      "flight": 8060,
      "isha": 8061,
      "flesh": 8062,
      "decade": 8063,
      "companions": 8064,
      "Nic": 8065,
      "enthus": 8066,
      "stamp": 8067,
      "keen": 8068,
      "serving": 8069,
      "PRAN": 8070,
      "closely": 8071,
      "Japanese": 8072,
      "preparation": 8073,
      "':%": 8074,
      "43": 8075,
      "Ber": 8076,
      "SM": 8077,
      "sports": 8078,
      "disgrace": 8079,
      "helping": 8080,
      "declar": 8081,
      "roleum": 8082,
      "technique": 8083,
      "56": 8084,
      "Laksh": 8085,
      "UP": 8086,
      "culation": 8087,
      "route": 8088,
      "thrown": 8089,
      "Exam": 8090,
      "transformation": 8091,
      "representation": 8092,
      "arrogant": 8093,
      "Font": 8094,
      "pent": 8095,
      "omon": 8096,
      "reserve": 8097,
      "diam": 8098,
      "instruction": 8099,
      "declare": 8100,
      "Maharaja": 8101,
      "Truly": 8102,
      "congratulate": 8103,
      "vehicle": 8104,
      "NABARD": 8105,
      "Oft": 8106,
      "bats": 8107,
      "worse": 8108,
      "dependent": 8109,
      "commands": 8110,
      "Working": 8111,
      "urity": 8112,
      "prophet": 8113,
      "females": 8114,
      "opposite": 8115,
      "largely": 8116,
      "Additional": 8117,
      "grief": 8118,
      "authentication": 8119,
      "stuff": 8120,
      "wages": 8121,
      "aland": 8122,
      "entity": 8123,
      "insist": 8124,
      "pleases": 8125,
      "loose": 8126,
      "oles": 8127,
      "united": 8128,
      "shell": 8129,
      "arguments": 8130,
      "recommended": 8131,
      "proposals": 8132,
      "EX": 8133,
      "wings": 8134,
      "inev": 8135,
      "dealt": 8136,
      "companion": 8137,
      "Template": 8138,
      "slay": 8139,
      "posal": 8140,
      "signal": 8141,
      "tooth": 8142,
      "topic": 8143,
      "Branch": 8144,
      "URI": 8145,
      "Ji": 8146,
      "iday": 8147,
      "unaware": 8148,
      "mises": 8149,
      "realised": 8150,
      "1996": 8151,
      "possessed": 8152,
      "Railway": 8153,
      "envis": 8154,
      "iously": 8155,
      "concerns": 8156,
      "livelihood": 8157,
      "deriv": 8158,
      "tourist": 8159,
      "Faith": 8160,
      "liness": 8161,
      "vul": 8162,
      "studied": 8163,
      "diet": 8164,
      "prince": 8165,
      "Britain": 8166,
      "silk": 8167,
      "Quest": 8168,
      "requirement": 8169,
      "wheat": 8170,
      "reaction": 8171,
      "managed": 8172,
      "hydro": 8173,
      "Industries": 8174,
      "George": 8175,
      "corresponding": 8176,
      "indigenous": 8177,
      "Black": 8178,
      "PE": 8179,
      "seats": 8180,
      "execution": 8181,
      "printer": 8182,
      "Cons": 8183,
      "invoke": 8184,
      "honor": 8185,
      "Viet": 8186,
      "inserted": 8187,
      "kne": 8188,
      "enlight": 8189,
      "aks": 8190,
      "boat": 8191,
      "experiences": 8192,
      "mac": 8193,
      "chi": 8194,
      "manage": 8195,
      "possibility": 8196,
      "consisting": 8197,
      "Rah": 8198,
      "grains": 8199,
      "modified": 8200,
      "Farm": 8201,
      "Kann": 8202,
      "Yoj": 8203,
      "conferred": 8204,
      "throne": 8205,
      "closer": 8206,
      "hardship": 8207,
      "Marathi": 8208,
      "Five": 8209,
      "Praise": 8210,
      "Sometimes": 8211,
      "Tit": 8212,
      "bread": 8213,
      "nose": 8214,
      "tribes": 8215,
      "civilization": 8216,
      "midst": 8217,
      "Sac": 8218,
      "drew": 8219,
      "rab": 8220,
      "asw": 8221,
      "shot": 8222,
      "exem": 8223,
      "Hinduism": 8224,
      "salary": 8225,
      "Chrome": 8226,
      "learnt": 8227,
      "contrary": 8228,
      "Mahabharata": 8229,
      "commencement": 8230,
      "chose": 8231,
      "Resource": 8232,
      "German": 8233,
      "Labour": 8234,
      "Yusuf": 8235,
      "NI": 8236,
      "revol": 8237,
      "protected": 8238,
      "Turkey": 8239,
      "ennai": 8240,
      "psycho": 8241,
      "Vaishn": 8242,
      "Money": 8243,
      "Wa": 8244,
      "ray": 8245,
      "mischief": 8246,
      "lessness": 8247,
      "feelings": 8248,
      "Empire": 8249,
      "attacks": 8250,
      "Majesty": 8251,
      "HAR": 8252,
      "Job": 8253,
      "ishad": 8254,
      "pledge": 8255,
      "ounce": 8256,
      "clam": 8257,
      "Thy": 8258,
      "assem": 8259,
      "discuss": 8260,
      "Punjabi": 8261,
      "yesterday": 8262,
      "Gita": 8263,
      "aun": 8264,
      "inces": 8265,
      "anci": 8266,
      "rose": 8267,
      "cham": 8268,
      "Hearing": 8269,
      "ikh": 8270,
      "careful": 8271,
      "farming": 8272,
      "introduction": 8273,
      "equivalent": 8274,
      "Vietnam": 8275,
      "(.": 8276,
      "Mob": 8277,
      "yle": 8278,
      "Int": 8279,
      "Leave": 8280,
      "Holy": 8281,
      "72": 8282,
      "cin": 8283,
      "otes": 8284,
      "obst": 8285,
      "carved": 8286,
      "paying": 8287,
      "broke": 8288,
      "defeat": 8289,
      "Properties": 8290,
      "amounts": 8291,
      "ua": 8292,
      "wished": 8293,
      "stup": 8294,
      "irement": 8295,
      "anga": 8296,
      "responsibilities": 8297,
      "customs": 8298,
      "consequence": 8299,
      "PRODUCT": 8300,
      "obeyed": 8301,
      "tremendous": 8302,
      "Siva": 8303,
      "rag": 8304,
      "Chennai": 8305,
      "Mohan": 8306,
      "aimed": 8307,
      "ICE": 8308,
      "analy": 8309,
      "succeeded": 8310,
      "lady": 8311,
      "Welfare": 8312,
      "drowned": 8313,
      "TI": 8314,
      "dress": 8315,
      "1950": 8316,
      "causing": 8317,
      "raph": 8318,
      "emerged": 8319,
      "printing": 8320,
      "Gazette": 8321,
      "Pension": 8322,
      "gross": 8323,
      "stan": 8324,
      "commonly": 8325,
      "produces": 8326,
      "Books": 8327,
      "favours": 8328,
      "secution": 8329,
      "64": 8330,
      "dia": 8331,
      "enrich": 8332,
      "cease": 8333,
      "closing": 8334,
      "lakhs": 8335,
      "dignity": 8336,
      "BY": 8337,
      "bum": 8338,
      "arts": 8339,
      "mature": 8340,
      "supposed": 8341,
      "supporting": 8342,
      "investig": 8343,
      "ruling": 8344,
      "techniques": 8345,
      "ding": 8346,
      "fashion": 8347,
      "participants": 8348,
      "essentially": 8349,
      "Scient": 8350,
      "izers": 8351,
      "elabor": 8352,
      "invite": 8353,
      "inclusive": 8354,
      "clothes": 8355,
      "Maur": 8356,
      "converted": 8357,
      "criticism": 8358,
      "ministers": 8359,
      "Sav": 8360,
      "VER": 8361,
      "heb": 8362,
      "adult": 8363,
      "organic": 8364,
      "solved": 8365,
      "performing": 8366,
      "philosoph": 8367,
      "atomic": 8368,
      "Engineering": 8369,
      "tests": 8370,
      "zing": 8371,
      "defect": 8372,
      "shif": 8373,
      "meal": 8374,
      "Three": 8375,
      "scr": 8376,
      "monu": 8377,
      "Sea": 8378,
      "Messages": 8379,
      ".“": 8380,
      "Cast": 8381,
      "ahabad": 8382,
      "”“": 8383,
      "amboo": 8384,
      "earliest": 8385,
      "hadur": 8386,
      "Proced": 8387,
      "plane": 8388,
      "acceptable": 8389,
      "questioned": 8390,
      "strengthened": 8391,
      "Defence": 8392,
      "ultimate": 8393,
      "Innovation": 8394,
      "Fun": 8395,
      "dread": 8396,
      "rob": 8397,
      "hereafter": 8398,
      "Relig": 8399,
      "sheep": 8400,
      "apping": 8401,
      "calculated": 8402,
      "31st": 8403,
      "Minimum": 8404,
      "texts": 8405,
      "healthcare": 8406,
      "Ran": 8407,
      "isol": 8408,
      "stations": 8409,
      "avity": 8410,
      "Pray": 8411,
      "Mahal": 8412,
      "Lah": 8413,
      "vim": 8414,
      "ilal": 8415,
      "periods": 8416,
      "happening": 8417,
      "secular": 8418,
      "Quality": 8419,
      "foresaid": 8420,
      "Gora": 8421,
      "peas": 8422,
      "cancer": 8423,
      "Configure": 8424,
      "77": 8425,
      "Dan": 8426,
      "Que": 8427,
      "opposed": 8428,
      "Soon": 8429,
      "Agree": 8430,
      "symptoms": 8431,
      "Thamud": 8432,
      "Dw": 8433,
      "Han": 8434,
      "Mur": 8435,
      "Vive": 8436,
      "fate": 8437,
      "powered": 8438,
      "Init": 8439,
      "Format": 8440,
      "secondary": 8441,
      "Speech": 8442,
      "integration": 8443,
      "consumers": 8444,
      "aforesaid": 8445,
      "bills": 8446,
      "jin": 8447,
      "pardon": 8448,
      "seat": 8449,
      "Investment": 8450,
      "yam": 8451,
      "stig": 8452,
      "urch": 8453,
      "prised": 8454,
      "guess": 8455,
      "angel": 8456,
      "operational": 8457,
      "statements": 8458,
      "Meeting": 8459,
      "teeth": 8460,
      "uniform": 8461,
      "NATIONAL": 8462,
      "Pack": 8463,
      "caught": 8464,
      "jack": 8465,
      "ales": 8466,
      "noise": 8467,
      "exalted": 8468,
      "ideals": 8469,
      "endeavour": 8470,
      "clubs": 8471,
      "49": 8472,
      "51": 8473,
      "lia": 8474,
      "extract": 8475,
      "discovered": 8476,
      "backward": 8477,
      "summer": 8478,
      "ariat": 8479,
      "vote": 8480,
      "Standard": 8481,
      "parliamentary": 8482,
      "poison": 8483,
      "circular": 8484,
      "Solar": 8485,
      "deceased": 8486,
      "Py": 8487,
      "gun": 8488,
      "IST": 8489,
      "tested": 8490,
      "Survey": 8491,
      "mouse": 8492,
      "ilitation": 8493,
      "Inser": 8494,
      "cket": 8495,
      "Previous": 8496,
      "Malay": 8497,
      "fifth": 8498,
      "conclusion": 8499,
      "ensus": 8500,
      "newspaper": 8501,
      "pipes": 8502,
      "Bhutan": 8503,
      "Departments": 8504,
      "58": 8505,
      "fever": 8506,
      "gran": 8507,
      "Selected": 8508,
      "involving": 8509,
      "decreed": 8510,
      "Aaron": 8511,
      "clip": 8512,
      "arter": 8513,
      "belied": 8514,
      "consent": 8515,
      "pending": 8516,
      "cheque": 8517,
      "organisms": 8518,
      "credited": 8519,
      "patients": 8520,
      "integrity": 8521,
      "Throne": 8522,
      "inhabitants": 8523,
      "amendment": 8524,
      "trig": 8525,
      "worker": 8526,
      "Encry": 8527,
      "witnessed": 8528,
      "circu": 8529,
      "tificates": 8530,
      "maintaining": 8531,
      "Space": 8532,
      "Solomon": 8533,
      "rapidly": 8534,
      "/%": 8535,
      "Lay": 8536,
      "Mut": 8537,
      "stim": 8538,
      "chat": 8539,
      "lla": 8540,
      "ongo": 8541,
      "ota": 8542,
      "intense": 8543,
      "putting": 8544,
      "influenced": 8545,
      "percentage": 8546,
      "Torah": 8547,
      "rough": 8548,
      "Professor": 8549,
      "AW": 8550,
      "Jour": 8551,
      "yers": 8552,
      "restore": 8553,
      "indu": 8554,
      "passage": 8555,
      "devote": 8556,
      "1991": 8557,
      "Contin": 8558,
      "grievous": 8559,
      "Hal": 8560,
      "flex": 8561,
      "wave": 8562,
      "thin": 8563,
      "constr": 8564,
      "generate": 8565,
      "leges": 8566,
      "describe": 8567,
      "OP": 8568,
      "Si": 8569,
      "ko": 8570,
      "eration": 8571,
      "illness": 8572,
      "Config": 8573,
      "interaction": 8574,
      "humans": 8575,
      "accessible": 8576,
      "disputes": 8577,
      ",%": 8578,
      "USA": 8579,
      "fur": 8580,
      "nment": 8581,
      "arise": 8582,
      "aven": 8583,
      "preserve": 8584,
      "bliss": 8585,
      "glass": 8586,
      "ruler": 8587,
      "separated": 8588,
      "bonds": 8589,
      "declaration": 8590,
      "''": 8591,
      "pond": 8592,
      "itra": 8593,
      "plicated": 8594,
      "devo": 8595,
      "naturally": 8596,
      "genu": 8597,
      "decline": 8598,
      "totally": 8599,
      "Brow": 8600,
      "Kit": 8601,
      "rers": 8602,
      "Were": 8603,
      "ogue": 8604,
      "Place": 8605,
      "gained": 8606,
      "implementing": 8607,
      "varieties": 8608,
      "recru": 8609,
      "EM": 8610,
      "Ir": 8611,
      "cused": 8612,
      "constitute": 8613,
      "Recent": 8614,
      "Islamist": 8615,
      "computers": 8616,
      "involves": 8617,
      "procedures": 8618,
      "illiam": 8619,
      "Yojana": 8620,
      "Election": 8621,
      "GNO": 8622,
      "Scal": 8623,
      "fed": 8624,
      "remem": 8625,
      "Private": 8626,
      "puts": 8627,
      "condol": 8628,
      "carries": 8629,
      "enterprises": 8630,
      "Arabs": 8631,
      "breaking": 8632,
      "Projects": 8633,
      "collective": 8634,
      "ranks": 8635,
      "Field": 8636,
      "Having": 8637,
      "LS": 8638,
      "empire": 8639,
      "braries": 8640,
      "paras": 8641,
      "Region": 8642,
      "Put": 8643,
      "hort": 8644,
      "hana": 8645,
      "seated": 8646,
      "Goa": 8647,
      "summon": 8648,
      "netic": 8649,
      "Brahma": 8650,
      "smooth": 8651,
      "consultation": 8652,
      "Game": 8653,
      "stable": 8654,
      "amend": 8655,
      "Allahabad": 8656,
      "bugg": 8657,
      "parency": 8658,
      "privilege": 8659,
      "GNOME": 8660,
      "pus": 8661,
      "agra": 8662,
      "ups": 8663,
      "lessly": 8664,
      "talent": 8665,
      "monthly": 8666,
      "1997": 8667,
      "sequence": 8668,
      "radical": 8669,
      "reduction": 8670,
      "reserved": 8671,
      "Bir": 8672,
      "Fest": 8673,
      "feder": 8674,
      "iod": 8675,
      "choo": 8676,
      "onts": 8677,
      "iche": 8678,
      "conversion": 8679,
      "ema": 8680,
      "childhood": 8681,
      "lamp": 8682,
      "celebrate": 8683,
      "elder": 8684,
      "Monotheism": 8685,
      "arg": 8686,
      "calam": 8687,
      "honoured": 8688,
      "mistake": 8689,
      "wheel": 8690,
      "Bul": 8691,
      "Teach": 8692,
      "oxy": 8693,
      "ria": 8694,
      "Prak": 8695,
      "intend": 8696,
      "vibr": 8697,
      "keeps": 8698,
      "protector": 8699,
      "circle": 8700,
      "pients": 8701,
      "attained": 8702,
      "gentle": 8703,
      "inaugurated": 8704,
      "guarantee": 8705,
      "innocent": 8706,
      "Jac": 8707,
      "William": 8708,
      "kim": 8709,
      "mould": 8710,
      "retribution": 8711,
      "artific": 8712,
      "counted": 8713,
      "ucing": 8714,
      "binding": 8715,
      "pilgrimage": 8716,
      "Bro": 8717,
      "ride": 8718,
      "marg": 8719,
      "casting": 8720,
      "Monitor": 8721,
      "API": 8722,
      "Media": 8723,
      "achieving": 8724,
      "enhanced": 8725,
      "erate": 8726,
      "logic": 8727,
      "ICT": 8728,
      "Devi": 8729,
      "transgressors": 8730,
      "Institutions": 8731,
      "HE": 8732,
      "Ku": 8733,
      "utory": 8734,
      "resign": 8735,
      "asser": 8736,
      "Chan": 8737,
      "walking": 8738,
      "inate": 8739,
      "agraph": 8740,
      "Always": 8741,
      "Gram": 8742,
      "stronger": 8743,
      "1980": 8744,
      "rupt": 8745,
      "translated": 8746,
      "aggregate": 8747,
      "Tan": 8748,
      "Zone": 8749,
      "enor": 8750,
      "pertaining": 8751,
      "EST": 8752,
      "header": 8753,
      "summary": 8754,
      "Abd": 8755,
      "tuous": 8756,
      "permanently": 8757,
      "thankful": 8758,
      "Hary": 8759,
      "bold": 8760,
      "hut": 8761,
      "evidences": 8762,
      "somebody": 8763,
      "Transfer": 8764,
      "hundreds": 8765,
      "Phone": 8766,
      "primarily": 8767,
      "Agra": 8768,
      "forbid": 8769,
      "Railways": 8770,
      "arrested": 8771,
      "emotional": 8772,
      "mates": 8773,
      "itals": 8774,
      "ulating": 8775,
      "aircraft": 8776,
      "accordingly": 8777,
      "Creator": 8778,
      "indicate": 8779,
      "Subscriber": 8780,
      "78": 8781,
      "Son": 8782,
      "bare": 8783,
      "dies": 8784,
      "endow": 8785,
      "illegal": 8786,
      "shan": 8787,
      "despair": 8788,
      "Brahman": 8789,
      "Lar": 8790,
      "stability": 8791,
      "ipedia": 8792,
      "bert": 8793,
      "ferent": 8794,
      "enjoyed": 8795,
      "Computer": 8796,
      "(*": 8797,
      "Sever": 8798,
      "awards": 8799,
      "mart": 8800,
      "threw": 8801,
      "ller": 8802,
      "enda": 8803,
      "compound": 8804,
      "Area": 8805,
      "infide": 8806,
      "entrepreneurs": 8807,
      "dynamic": 8808,
      "AK": 8809,
      "Som": 8810,
      "driver": 8811,
      "uscri": 8812,
      "Anand": 8813,
      "ruled": 8814,
      "slowly": 8815,
      "fortunately": 8816,
      "weigh": 8817,
      "confir": 8818,
      "shift": 8819,
      "entering": 8820,
      "peaceful": 8821,
      "springs": 8822,
      "Valley": 8823,
      "hatred": 8824,
      "audience": 8825,
      "Telugu": 8826,
      "Ayurveda": 8827,
      "VIS": 8828,
      "regre": 8829,
      "doors": 8830,
      "Islands": 8831,
      "sar": 8832,
      "sport": 8833,
      "yr": 8834,
      "brand": 8835,
      "reaches": 8836,
      "sixty": 8837,
      "widow": 8838,
      "passionate": 8839,
      "Greek": 8840,
      "Lucknow": 8841,
      "Culture": 8842,
      "lor": 8843,
      "cting": 8844,
      "usively": 8845,
      "engagement": 8846,
      "Uni": 8847,
      "1993": 8848,
      "aneously": 8849,
      "connectivity": 8850,
      "assuredly": 8851,
      "remembered": 8852,
      "arrive": 8853,
      "tored": 8854,
      "Almighty": 8855,
      "progressive": 8856,
      "combined": 8857,
      "Badr": 8858,
      "Haryana": 8859,
      "Shas": 8860,
      "vas": 8861,
      "fees": 8862,
      "ensed": 8863,
      "Advis": 8864,
      "Notwithstanding": 8865,
      "ushing": 8866,
      "indicated": 8867,
      "Organization": 8868,
      "consolid": 8869,
      "Lam": 8870,
      "gif": 8871,
      "lips": 8872,
      "fears": 8873,
      "societies": 8874,
      "joining": 8875,
      "imported": 8876,
      "winds": 8877,
      "Bahadur": 8878,
      "murder": 8879,
      "stakeholders": 8880,
      "plaintiff": 8881,
      "rhyth": 8882,
      "Da": 8883,
      "Jh": 8884,
      "winter": 8885,
      "islands": 8886,
      "confined": 8887,
      "worry": 8888,
      "Behold": 8889,
      "paintings": 8890,
      "SAYS": 8891,
      "definition": 8892,
      "rooms": 8893,
      "Automatic": 8894,
      "sharp": 8895,
      "alarm": 8896,
      "conve": 8897,
      "artist": 8898,
      "worn": 8899,
      "ocation": 8900,
      "Registration": 8901,
      "Update": 8902,
      "novels": 8903,
      "hibited": 8904,
      "bits": 8905,
      "pour": 8906,
      "wilt": 8907,
      "itan": 8908,
      "composition": 8909,
      "anywhere": 8910,
      "oung": 8911,
      "Chat": 8912,
      "purity": 8913,
      "readers": 8914,
      "vara": 8915,
      "beneficial": 8916,
      "characteristic": 8917,
      "representing": 8918,
      "installation": 8919,
      "Bangalore": 8920,
      "Natural": 8921,
      "scheduled": 8922,
      "Ish": 8923,
      "Vic": 8924,
      "hin": 8925,
      "payments": 8926,
      "closure": 8927,
      "models": 8928,
      "Sikkim": 8929,
      "LIC": 8930,
      "ims": 8931,
      "resc": 8932,
      "surrender": 8933,
      "criter": 8934,
      "occupied": 8935,
      "revolutionary": 8936,
      "movable": 8937,
      "52": 8938,
      "Kur": 8939,
      "gap": 8940,
      "residence": 8941,
      "handic": 8942,
      "pene": 8943,
      "proceeding": 8944,
      "Govt": 8945,
      "68": 8946,
      "Aj": 8947,
      "EVE": 8948,
      "Ident": 8949,
      "Long": 8950,
      "Partic": 8951,
      "lion": 8952,
      "icting": 8953,
      "beach": 8954,
      "pets": 8955,
      "endor": 8956,
      "returning": 8957,
      "easier": 8958,
      "Bills": 8959,
      "din": 8960,
      "recit": 8961,
      "abling": 8962,
      "sore": 8963,
      "pless": 8964,
      "discre": 8965,
      "proviso": 8966,
      "myth": 8967,
      "handle": 8968,
      "channels": 8969,
      "1988": 8970,
      "treasure": 8971,
      "Saudi": 8972,
      "cies": 8973,
      "edition": 8974,
      "impress": 8975,
      "aco": 8976,
      "addy": 8977,
      "plicate": 8978,
      "institutional": 8979,
      "surrounded": 8980,
      "precise": 8981,
      "1000": 8982,
      "Flo": 8983,
      "Gul": 8984,
      "TS": 8985,
      "nity": 8986,
      "sured": 8987,
      "bigger": 8988,
      "Remote": 8989,
      "Vivekan": 8990,
      "Dem": 8991,
      "mount": 8992,
      "atel": 8993,
      "maybe": 8994,
      "everywhere": 8995,
      "Personal": 8996,
      "Maximum": 8997,
      "algorithm": 8998,
      "yo": 8999,
      "resem": 9000,
      "andom": 9001,
      "exposed": 9002,
      "gov": 9003,
      "hole": 9004,
      "Phys": 9005,
      "legislative": 9006,
      "competitive": 9007,
      "%.": 9008,
      "iya": 9009,
      "regime": 9010,
      "merged": 9011,
      "grounds": 9012,
      "commodities": 9013,
      "appreh": 9014,
      "Anj": 9015,
      "Hindust": 9016,
      "Regulation": 9017,
      "Summit": 9018,
      "boost": 9019,
      "Several": 9020,
      "400": 9021,
      "Equ": 9022,
      "duly": 9023,
      "handed": 9024,
      "organism": 9025,
      "continent": 9026,
      "sinful": 9027,
      "expiry": 9028,
      "woe": 9029,
      "spreading": 9030,
      "hunger": 9031,
      "Hall": 9032,
      "NH": 9033,
      "museum": 9034,
      "itment": 9035,
      "itative": 9036,
      "weep": 9037,
      "shut": 9038,
      "perfection": 9039,
      "exit": 9040,
      "nearer": 9041,
      "undertake": 9042,
      "tells": 9043,
      "experienced": 9044,
      "Jacob": 9045,
      "kings": 9046,
      "loyal": 9047,
      "persu": 9048,
      "astro": 9049,
      "invented": 9050,
      "Return": 9051,
      "appellant": 9052,
      "lift": 9053,
      "Convention": 9054,
      "maturity": 9055,
      "thorough": 9056,
      "distant": 9057,
      "publish": 9058,
      "Obama": 9059,
      "Background": 9060,
      "attribute": 9061,
      "overseas": 9062,
      "developments": 9063,
      "refuse": 9064,
      "associates": 9065,
      "blessing": 9066,
      "multiply": 9067,
      "golden": 9068,
      "attractive": 9069,
      "Himalayan": 9070,
      "shelter": 9071,
      "Total": 9072,
      "wand": 9073,
      "references": 9074,
      "concil": 9075,
      "fool": 9076,
      "approxim": 9077,
      "Airport": 9078,
      "executed": 9079,
      "organs": 9080,
      "Bre": 9081,
      "Cance": 9082,
      "Gri": 9083,
      "Java": 9084,
      "pest": 9085,
      "uding": 9086,
      "newly": 9087,
      "charita": 9088,
      "Implement": 9089,
      "resulted": 9090,
      "agreements": 9091,
      "encod": 9092,
      "exceeds": 9093,
      "entrance": 9094,
      "obligation": 9095,
      "sanctioned": 9096,
      "Employment": 9097,
      "Nanak": 9098,
      "Family": 9099,
      "Dam": 9100,
      "Jer": 9101,
      "Pune": 9102,
      "Young": 9103,
      "hire": 9104,
      "wara": 9105,
      "Centres": 9106,
      "True": 9107,
      "RBI": 9108,
      "institutes": 9109,
      "imagination": 9110,
      "Basava": 9111,
      "EECH": 9112,
      "SPEECH": 9113,
      "conversation": 9114,
      "penetr": 9115,
      "Terror": 9116,
      "som": 9117,
      "wat": 9118,
      "zen": 9119,
      "isite": 9120,
      "warrant": 9121,
      "Download": 9122,
      "colonial": 9123,
      "Procedure": 9124,
      "Kav": 9125,
      "Kore": 9126,
      "faster": 9127,
      "mah": 9128,
      "icate": 9129,
      "entation": 9130,
      "extensive": 9131,
      "locks": 9132,
      "Jewish": 9133,
      "mixture": 9134,
      "contrast": 9135,
      ":—": 9136,
      "Nation": 9137,
      "inscri": 9138,
      "align": 9139,
      "asero": 9140,
      "indranath": 9141,
      "Forum": 9142,
      "posts": 9143,
      "connecting": 9144,
      "Mart": 9145,
      "moun": 9146,
      "wali": 9147,
      "avana": 9148,
      "knowled": 9149,
      "devil": 9150,
      "naments": 9151,
      "occasions": 9152,
      "autonom": 9153,
      "pollut": 9154,
      "ascribe": 9155,
      "rans": 9156,
      "assa": 9157,
      "loom": 9158,
      "outcome": 9159,
      "ruin": 9160,
      "supports": 9161,
      "applies": 9162,
      "1995": 9163,
      "Grand": 9164,
      "games": 9165,
      "newspapers": 9166,
      "Title": 9167,
      "tied": 9168,
      "ulous": 9169,
      "athy": 9170,
      "Arun": 9171,
      "lotus": 9172,
      "Design": 9173,
      "experts": 9174,
      "evolved": 9175,
      "Gujarati": 9176,
      "Smt": 9177,
      "transportation": 9178,
      "resistance": 9179,
      "aspirations": 9180,
      "ichever": 9181,
      "2nd": 9182,
      "FO": 9183,
      "MENT": 9184,
      "Washing": 9185,
      "bamboo": 9186,
      "replaced": 9187,
      "cel": 9188,
      "impression": 9189,
      "trip": 9190,
      "grants": 9191,
      "twain": 9192,
      "calf": 9193,
      "clock": 9194,
      "ENCE": 9195,
      "connections": 9196,
      "hearted": 9197,
      "sustained": 9198,
      "massive": 9199,
      "Administration": 9200,
      "diagno": 9201,
      "Insert": 9202,
      "dal": 9203,
      "focused": 9204,
      "Whenever": 9205,
      "layout": 9206,
      "fairly": 9207,
      "prayed": 9208,
      "corporation": 9209,
      "Dist": 9210,
      "hub": 9211,
      "abnormal": 9212,
      "noticed": 9213,
      "Protocol": 9214,
      "Love": 9215,
      "aze": 9216,
      "photograph": 9217,
      "ammation": 9218,
      "parallel": 9219,
      "41": 9220,
      "Rag": 9221,
      "lust": 9222,
      "quake": 9223,
      "brilli": 9224,
      "otional": 9225,
      "visits": 9226,
      "countrymen": 9227,
      "realized": 9228,
      "regards": 9229,
      "muscle": 9230,
      "crucial": 9231,
      "plugins": 9232,
      "genuine": 9233,
      "Du": 9234,
      "Hard": 9235,
      "Ministries": 9236,
      "tourists": 9237,
      "Digital": 9238,
      "Mobile": 9239,
      "Cut": 9240,
      "Father": 9241,
      "Pop": 9242,
      "Stra": 9243,
      "Times": 9244,
      "youn": 9245,
      "comments": 9246,
      "Indira": 9247,
      "maid": 9248,
      "players": 9249,
      "keyboard": 9250,
      "utilised": 9251,
      "convinced": 9252,
      "NS": 9253,
      "tun": 9254,
      "isan": 9255,
      "reducing": 9256,
      "hadi": 9257,
      "precious": 9258,
      "module": 9259,
      "Point": 9260,
      "1989": 9261,
      "frequently": 9262,
      "Rot": 9263,
      "tosh": 9264,
      "epic": 9265,
      "intu": 9266,
      "cursed": 9267,
      "orses": 9268,
      "miles": 9269,
      "silent": 9270,
      "prevented": 9271,
      "watching": 9272,
      "exclusively": 9273,
      "POP": 9274,
      "skilled": 9275,
      "candidates": 9276,
      "conventional": 9277,
      "74": 9278,
      "nomin": 9279,
      "deter": 9280,
      "shade": 9281,
      "virtuous": 9282,
      "depending": 9283,
      "dangerous": 9284,
      "Wikipedia": 9285,
      "Mach": 9286,
      "wary": 9287,
      "atra": 9288,
      "struction": 9289,
      "SHRI": 9290,
      "copies": 9291,
      "KS": 9292,
      "Patel": 9293,
      "Vas": 9294,
      "nagar": 9295,
      "conse": 9296,
      "ifically": 9297,
      "actors": 9298,
      "Prim": 9299,
      "pura": 9300,
      "varied": 9301,
      "festivals": 9302,
      "gathering": 9303,
      "jinns": 9304,
      "Mang": 9305,
      "Stop": 9306,
      "ille": 9307,
      "amid": 9308,
      "nearest": 9309,
      "dissemin": 9310,
      "ounced": 9311,
      "manuscri": 9312,
      "ela": 9313,
      "Real": 9314,
      "Sovi": 9315,
      "ashed": 9316,
      "Polit": 9317,
      "damaged": 9318,
      "Gen": 9319,
      "Ray": 9320,
      "fan": 9321,
      "gates": 9322,
      "nin": 9323,
      "sme": 9324,
      "recover": 9325,
      "ilation": 9326,
      "deth": 9327,
      "whis": 9328,
      "adm": 9329,
      "Incl": 9330,
      "actively": 9331,
      "prestig": 9332,
      "nerve": 9333,
      "sounds": 9334,
      "kn": 9335,
      "vouch": 9336,
      "stip": 9337,
      "bitter": 9338,
      "magaz": 9339,
      "swift": 9340,
      "Moreover": 9341,
      "Paper": 9342,
      "Ven": 9343,
      "Wild": 9344,
      "fre": 9345,
      "’,": 9346,
      "quad": 9347,
      "suggestions": 9348,
      "exclusive": 9349,
      "Academy": 9350,
      "Guidelines": 9351,
      "younger": 9352,
      "pear": 9353,
      "permissions": 9354,
      "flows": 9355,
      "expanded": 9356,
      "brave": 9357,
      "perceive": 9358,
      "atellite": 9359,
      "Rule": 9360,
      "Ul": 9361,
      "vy": 9362,
      "chest": 9363,
      "mining": 9364,
      "rows": 9365,
      "colleges": 9366,
      "financing": 9367,
      "1986": 9368,
      "crafts": 9369,
      "occupation": 9370,
      "luck": 9371,
      "incorporated": 9372,
      "Dy": 9373,
      "Kath": 9374,
      "Na": 9375,
      "Vo": 9376,
      "Vill": 9377,
      "VID": 9378,
      "osa": 9379,
      "somewhat": 9380,
      "Until": 9381,
      "institute": 9382,
      "void": 9383,
      "assumed": 9384,
      "Kabir": 9385,
      "Sank": 9386,
      "UD": 9387,
      "discover": 9388,
      "Transport": 9389,
      "Washington": 9390,
      "gage": 9391,
      "ahan": 9392,
      "Requ": 9393,
      "intest": 9394,
      "emergency": 9395,
      "Promotion": 9396,
      "Birth": 9397,
      "Jal": 9398,
      "MES": 9399,
      "quer": 9400,
      "scape": 9401,
      "insol": 9402,
      "punished": 9403,
      "eleven": 9404,
      "Directory": 9405,
      "53": 9406,
      "Band": 9407,
      "Own": 9408,
      "aes": 9409,
      "tum": 9410,
      "upr": 9411,
      "aria": 9412,
      "hears": 9413,
      "forming": 9414,
      "spell": 9415,
      "merit": 9416,
      "villagers": 9417,
      "furnished": 9418,
      "doubts": 9419,
      "CV": 9420,
      "MIN": 9421,
      "PP": 9422,
      "zer": 9423,
      "inqu": 9424,
      "oub": 9425,
      "uti": 9426,
      "adverse": 9427,
      "avas": 9428,
      "singing": 9429,
      "membership": 9430,
      "Lead": 9431,
      "visiting": 9432,
      "Sucharita": 9433,
      "dramatic": 9434,
      "cm": 9435,
      "fright": 9436,
      "exha": 9437,
      "Mosque": 9438,
      "Cost": 9439,
      "Without": 9440,
      "Vedas": 9441,
      "LDAP": 9442,
      "doctors": 9443,
      "parameters": 9444,
      "remed": 9445,
      "encompass": 9446,
      "fraud": 9447,
      "disaster": 9448,
      "missible": 9449,
      "asks": 9450,
      "ARY": 9451,
      "politic": 9452,
      "vertical": 9453,
      "wooden": 9454,
      "Rao": 9455,
      "troops": 9456,
      "Bush": 9457,
      "Was": 9458,
      "saint": 9459,
      "boot": 9460,
      "mini": 9461,
      "logist": 9462,
      "colors": 9463,
      "calm": 9464,
      "cutting": 9465,
      "taxes": 9466,
      "Planning": 9467,
      "snake": 9468,
      "Review": 9469,
      "forgotten": 9470,
      "phrase": 9471,
      "Festival": 9472,
      "hatt": 9473,
      "icans": 9474,
      "entries": 9475,
      "disorder": 9476,
      "Star": 9477,
      "simult": 9478,
      "planet": 9479,
      "1987": 9480,
      "radiation": 9481,
      "abundance": 9482,
      "Eat": 9483,
      "PL": 9484,
      "prophets": 9485,
      "answers": 9486,
      "scattered": 9487,
      "residential": 9488,
      "bull": 9489,
      "exception": 9490,
      "Loading": 9491,
      "freely": 9492,
      "bestow": 9493,
      "cancel": 9494,
      "batsman": 9495,
      "Switch": 9496,
      "mol": 9497,
      "tall": 9498,
      "vous": 9499,
      "pow": 9500,
      "exchanges": 9501,
      "belonged": 9502,
      "Himalayas": 9503,
      "geographical": 9504,
      "Russian": 9505,
      "derivative": 9506,
      "Aur": 9507,
      "सी": 9508,
      "everybody": 9509,
      "examine": 9510,
      "investigation": 9511,
      "pipe": 9512,
      "Glory": 9513,
      "Event": 9514,
      "fro": 9515,
      "doth": 9516,
      "tribe": 9517,
      "atories": 9518,
      "arrival": 9519,
      "nearby": 9520,
      "sibly": 9521,
      "Contacts": 9522,
      "encouraging": 9523,
      "piety": 9524,
      "dar": 9525,
      "eds": 9526,
      "therewith": 9527,
      "Resol": 9528,
      "strongly": 9529,
      "neglect": 9530,
[...]
